{"version":"1.0","truncation":null,"padding":null,"added_tokens":[{"id":0,"special":true,"content":"[PAD]","single_word":false,"lstrip":false,"rstrip":false,"normalized":false},{"id":101,"special":true,"content":"[UNK]","single_word":false,"lstrip":false,"rstrip":false,"normalized":false},{"id":102,"special":true,"content":"[CLS]","single_word":false,"lstrip":false,"rstrip":false,"normalized":false},{"id":103,"special":true,"content":"[SEP]","single_word":false,"lstrip":false,"rstrip":false,"normalized":false},{"id":104,"special":true,"content":"[MASK]","single_word":false,"lstrip":false,"rstrip":false,"normalized":false}],"normalizer":{"type":"BertNormalizer","clean_text":true,"handle_chinese_chars":true,"strip_accents":false,"lowercase":false},"pre_tokenizer":{"type":"BertPreTokenizer"},"post_processor":{"type":"TemplateProcessing","single":[{"SpecialToken":{"id":"[CLS]","type_id":0}},{"Sequence":{"id":"A","type_id":0}},{"SpecialToken":{"id":"[SEP]","type_id":0}}],"pair":[{"SpecialToken":{"id":"[CLS]","type_id":0}},{"Sequence":{"id":"A","type_id":0}},{"SpecialToken":{"id":"[SEP]","type_id":0}},{"Sequence":{"id":"B","type_id":1}},{"SpecialToken":{"id":"[SEP]","type_id":1}}],"special_tokens":{"[CLS]":{"id":"[CLS]","ids":[102],"tokens":["[CLS]"]},"[SEP]":{"id":"[SEP]","ids":[103],"tokens":["[SEP]"]}}},"decoder":{"type":"WordPiece","prefix":"##","cleanup":true},"model":{"type":"WordPiece","unk_token":"[UNK]","continuing_subword_prefix":"##","max_input_chars_per_word":100,"vocab":{"[PAD]":0,"unused0":1,"unused1":2,"unused2":3,"unused3":4,"unused4":5,"unused5":6,"unused6":7,"unused7":8,"unused8":9,"unused9":10,"unused10":11,"unused11":12,"unused12":13,"unused13":14,"unused14":15,"unused15":16,"unused16":17,"unused17":18,"unused18":19,"unused19":20,"unused20":21,"unused21":22,"unused22":23,"unused23":24,"unused24":25,"unused25":26,"unused26":27,"unused27":28,"unused28":29,"unused29":30,"unused30":31,"unused31":32,"unused32":33,"unused33":34,"unused34":35,"unused35":36,"unused36":37,"unused37":38,"unused38":39,"unused39":40,"unused40":41,"unused41":42,"unused42":43,"unused43":44,"unused44":45,"unused45":46,"unused46":47,"unused47":48,"unused48":49,"unused49":50,"unused50":51,"unused51":52,"unused52":53,"unused53":54,"unused54":55,"unused55":56,"unused56":57,"unused57":58,"unused58":59,"unused59":60,"unused60":61,"unused61":62,"unused62":63,"unused63":64,"unused64":65,"unused65":66,"unused66":67,"unused67":68,"unused68":69,"unused69":70,"unused70":71,"unused71":72,"unused72":73,"unused73":74,"unused74":75,"unused75":76,"unused76":77,"unused77":78,"unused78":79,"unused79":80,"unused80":81,"unused81":82,"unused82":83,"unused83":84,"unused84":85,"unused85":86,"unused86":87,"unused87":88,"unused88":89,"unused89":90,"unused90":91,"unused91":92,"unused92":93,"unused93":94,"unused94":95,"unused95":96,"unused96":97,"unused97":98,"unused98":99,"unused99":100,"[UNK]":101,"[CLS]":102,"[SEP]":103,"[MASK]":104,"##er":105,"##en":106,"##ch":107,"d":108,"##ei":109,"##ie":110,"##un":111,"##st":112,"##in":113,"##an":114,"##es":115,"##ein":116,"s":117,"S":118,"##on":119,"a":120,"w":121,"##ich":122,"##te":123,"##ge":124,"der":125,"##und":126,"##sch":127,"die":128,"##ar":129,"D":130,"A":131,"##ung":132,"v":133,"##or":134,"##it":135,"und":136,"##ll":137,"##ur":138,"##as":139,"b":140,"##at":141,"B":142,"ein":143,"i":144,"m":145,"M":146,"##hr":147,"z":148,"E":149,"##em":150,"n":151,"##al":152,"in":153,"##us":154,"##ten":155,"##gen":156,"K":157,"##de":158,"G":159,"h":160,"F":161,"##ter":162,"W":163,"1":164,"P":165,"f":166,"##der":167,"##uf":168,"##den":169,"##el":170,"I":171,"##et":172,"##ra":173,"H":174,"##ber":175,"T":176,"##is":177,"R":178,"V":179,"er":180,"##ir":181,"##um":182,"L":183,"k":184,"##ti":185,"##lich":186,"##am":187,"##ach":188,"##ür":189,"den":190,"##isch":191,"##om":192,"##eit":193,"ge":194,"von":195,"N":196,"2":197,"##ier":198,"das":199,"g":200,"(":201,"##ol":202,"##re":203,"##ro":204,"zu":205,"J":206,"##ck":207,"an":208,"##ben":209,"##icht":210,"##ut":211,"mit":212,"##uch":213,"##ig":214,"ist":215,"auf":216,"##and":217,"U":218,"##eh":219,"##ion":220,"##il":221,"des":222,"im":223,"\"":224,"Z":225,"ver":226,"##ent":227,"l":228,"Die":229,"##rei":230,"für":231,"-":232,"##sen":233,"St":234,"##ls":235,"##ann":236,"##se":237,"##ahr":238,"Ver":239,"##af":240,"##ste":241,"C":242,"##men":243,"##au":244,"##le":245,"##ag":246,"Sch":247,"be":248,"dem":249,"##ah":250,"sich":251,"20":252,"19":253,"t":254,"nicht":255,"o":256,"O":257,"un":258,"In":259,"aus":260,"eine":261,"so":262,"##ischen":263,"##än":264,"##ab":265,"##och":266,"An":267,"wir":268,"##ik":269,"##ien":270,"##ungen":271,"##kt":272,"##ff":273,"##eu":274,"##sp":275,"als":276,"wur":277,"##über":278,"Er":279,"##nen":280,"##ehr":281,"bei":282,"##ind":283,"##iel":284,"war":285,"Sie":286,"##wei":287,"es":288,"##ver":289,"sein":290,"##sten":291,"sch":292,"##ser":293,"##ger":294,"p":295,"Un":296,"##etz":297,"##ad":298,"##schaf":299,"##eich":300,"##ation":301,"##lle":302,"##he":303,"über":304,"st":305,"##esch":306,"sie":307,"hat":308,"wer":309,"##ern":310,"Ein":311,"##ed":312,"auch":313,"##eg":314,"##eil":315,"##ri":316,"##os":317,"##hn":318,"##ts":319,"##ul":320,"j":321,"##aus":322,"##ing":323,"##op":324,"wurde":325,"Jahr":326,"##ungs":327,"##im":328,"##ot":329,"##ün":330,"##est":331,"##llen":332,"nach":333,"vor":334,"wie":335,"um":336,"##urch":337,"werden":338,"am":339,"##rie":340,"sind":341,"##00":342,"##ort":343,"##ru":344,"##mer":345,"##lie":346,"Das":347,"ihr":348,"##ang":349,"Sp":350,"Der":351,"Ar":352,"3":353,"##ist":354,"##gt":355,"zur":356,"##ön":357,"##enn":358,"##ör":359,"##la":360,"##be":361,"201":362,"##all":363,"##end":364,"Pro":365,"##ische":366,"##är":367,"e":368,"einer":369,"##schaft":370,"wird":371,"##ät":372,"##aben":373,"En":374,"Mit":375,"##rä":376,"dass":377,"bis":378,"Ge":379,"##anz":380,"##chen":381,"##ne":382,"ich":383,"r":384,"##hal":385,"zum":386,"durch":387,"##hl":388,"unter":389,"##ück":390,"##tig":391,"##wer":392,"##tet":393,"oder":394,"Ich":395,"Aus":396,"einen":397,"Be":398,"Re":399,"##ug":400,"##ft":401,"ent":402,"einem":403,"ab":404,"##lichen":405,"##igen":406,"##kti":407,"da":408,"##ster":409,"##tel":410,"##eiter":411,"##pp":412,"##stell":413,"##ill":414,"##..":415,"##tern":416,"##ühr":417,"##eine":418,"##gel":419,"##omm":420,"200":421,"##art":422,"##ran":423,"Ber":424,"Ab":425,"##iert":426,"##auf":427,"sp":428,"##zen":429,"0":430,"##uss":431,"##ner":432,"##iv":433,"De":434,"##ige":435,"##ick":436,"##og":437,"##ahl":438,"##ht":439,"##geb":440,"##che":441,"##cht":442,"##ähr":443,"##ommen":444,"Vor":445,"Auf":446,"noch":447,"##ehen":448,"##uß":449,"haben":450,"##bt":451,"##her":452,"##pf":453,"##rit":454,"##ert":455,"##ic":456,"##for":457,"##atz":458,"##liche":459,"##iz":460,"##bl":461,"##ers":462,"##utsch":463,"##eiten":464,"Nach":465,"##elt":466,"##ges":467,"Ma":468,"##eits":469,"4":470,"##hen":471,"##me":472,"all":473,"re":474,"nur":475,"wo":476,"##ass":477,"Im":478,"Es":479,"##ord":480,"##zu":481,"kön":482,"18":483,"mehr":484,"##ken":485,"##lin":486,"##aten":487,"Eur":488,"ander":489,"##ast":490,"##fen":491,"##land":492,"5":493,"aber":494,"##ess":495,"##ap":496,"Gr":497,"„":498,"##ust":499,"##gr":500,"##\",":501,"##etzt":502,"So":503,"##det":504,"Wir":505,"de":506,"vom":507,"##tra":508,"##ech":509,"zwei":510,"##...":511,"##abe":512,"dies":513,"du":514,"##ud":515,"##adt":516,"##bar":517,"##dern":518,"##eben":519,"##rü":520,"##arb":521,"##ler":522,"##ho":523,"##ze":524,"##lei":525,"##keit":526,"##äch":527,"##wie":528,"##mal":529,"kann":530,"##pl":531,"neu":532,"##ke":533,"ber":534,"##ue":535,"##alt":536,"Kon":537,"Her":538,"##roß":539,"##ia":540,"##ob":541,"##nis":542,"##id":543,"zw":544,"man":545,"##ok":546,"##lt":547,"##ant":548,"##ieren":549,"##ktion":550,"Mar":551,"Or":552,"c":553,"7":554,"dar":555,"was":556,"##oll":557,"gew":558,"##20":559,"##tt":560,"##schen":561,"##iss":562,"##fahr":563,"Se":564,"##leich":565,".":566,"Gem":567,"Ent":568,"##imm":569,"##kl":570,"Land":571,"##ild":572,"##ss":573,"gegen":574,"##reich":575,"weiter":576,"Zeit":577,"##ehmen":578,"##heit":579,"6":580,"et":581,"##assen":582,"Am":583,"Fra":584,"soll":585,"##ak":586,"##ial":587,"##),":588,"##führ":589,"Was":590,"##nah":591,"lie":592,"Arb":593,"##bur":594,"bes":595,"Bei":596,"##utz":597,"##fer":598,"##).":599,"199":600,"##acht":601,"##ohn":602,"##ay":603,"##fe":604,"ges":605,"##ow":606,"Um":607,"wurden":608,"##ammen":609,"##glich":610,"Ch":611,"Al":612,"##fl":613,"##fol":614,"Gemein":615,"##ov":616,"Fl":617,"können":618,"##mit":619,"##ierung":620,"##age":621,"##üt":622,"gen":623,"##du":624,"##ffen":625,"##eb":626,"##teil":627,"wieder":628,"##itz":629,"##ell":630,"hin":631,"##ande":632,"Unter":633,"kon":634,"##att":635,"##ekt":636,"best":637,"hatte":638,"##bst":639,"##od":640,"Ges":641,"8":642,"Komm":643,"##schl":644,"##eigen":645,"##unden":646,"##usammen":647,"##vor":648,"##dem":649,"Europ":650,"hier":651,"##schie":652,"kl":653,"##rin":654,"##per":655,"Kl":656,"bet":657,"##19":658,"##pt":659,"dieser":660,"##agen":661,"##1.":662,"##glie":663,"##ard":664,"##eiß":665,"##//":666,"##reis":667,"Stadt":668,"10":669,"her":670,"##ational":671,"##änd":672,"##ierte":673,"etw":674,"Ü":675,"Reg":676,"##gan":677,"##ließ":678,"##olit":679,"9":680,"##nung":681,"##eid":682,"eines":683,"wenn":684,"##://":685,"sowie":686,"diese":687,"##eld":688,"##ischer":689,"##net":690,"##lung":691,"##rat":692,"##iger":693,"Pl":694,"##we":695,"Ihr":696,"seine":697,"15":698,"##form":699,"Und":700,"##üs":701,"##sam":702,"##wick":703,"habe":704,"##mein":705,"##öff":706,"##io":707,"Deutsch":708,"##ate":709,"Ho":710,"##ett":711,"##ität":712,"##zeit":713,"##ark":714,"For":715,"##gesch":716,"Ro":717,"zwischen":718,"##ttp":719,"##ahn":720,"##hm":721,"http":722,"groß":723,"##2.":724,"##iele":725,"##ibt":726,"##kte":727,"##si":728,"je":729,"##ce":730,"##ma":731,"Über":732,"##eite":733,"uns":734,"Ste":735,"##los":736,"##mm":737,"##rich":738,"17":739,"##onder":740,"##kommen":741,"dann":742,"##zeu":743,"Jahre":744,"sei":745,"seiner":746,"##burg":747,"Zu":748,"Gesch":749,"Th":750,"##gend":751,"Mon":752,"sag":753,"Q":754,"Wie":755,"##\".":756,"##qu":757,"Men":758,"##oren":759,"Jahren":760,"##issen":761,"ins":762,"Br":763,"waren":764,"##sel":765,"##fin":766,"198":767,"##ub":768,"##nte":769,"##eute":770,"geh":771,"##10":772,"##ition":773,"ihre":774,"##tigen":775,"##ember":776,"##lau":777,"schon":778,"##eim":779,"mir":780,"##zeich":781,"##aut":782,"##fü":783,"##einen":784,"##eister":785,"##ren":786,"##ater":787,"##haus":788,"##kel":789,"##ße":790,"##ähl":791,"16":792,"##stellt":793,"##inder":794,"##ission":795,"dam":796,"##tem":797,"##bau":798,"##lo":799,"gibt":800,"sel":801,"##halten":802,"##öglich":803,"mich":804,"##ale":805,"##rupp":806,"##inn":807,"##gra":808,"–":809,"##our":810,"##orden":811,"##eht":812,"##hnen":813,"##achen":814,"Wer":815,"alle":816,"##amt":817,",":818,"jed":819,"##000":820,"##war":821,"##zent":822,"##ph":823,"Mitglie":824,"##wir":825,"##tion":826,"viel":827,"##pro":828,"##pr":829,"drei":830,"##aat":831,"##amen":832,"unser":833,"##fall":834,"fin":835,"seit":836,"##annt":837,"##vers":838,"ger":839,"Du":840,"Ko":841,"Teil":842,"sehr":843,"##ine":844,"Spiel":845,"##arl":846,"immer":847,"daß":848,"Ja":849,"##ian":850,"##berg":851,"##änder":852,":":853,"##spiel":854,"keine":855,"14":856,"##tag":857,"##stand":858,"gesch":859,"Haus":860,"##ationen":861,"##zie":862,"##geben":863,"##üd":864,"##satz":865,"Welt":866,"Da":867,"##chte":868,"Bet":869,"##3.":870,"the":871,"gr":872,"##ium":873,"ange":874,"##weise":875,"zurück":876,"Uhr":877,"Geb":878,"##öl":879,"##if":880,"##hne":881,"##iet":882,"##ald":883,"##ucht":884,"(1":885,"##sk":886,"##bes":887,"##cken":888,"##zial":889,"##yst":890,"##ank":891,"##mann":892,"diesem":893,"##erson":894,"##eter":895,"##eist":896,"##trag":897,"Frau":898,"ihn":899,"##atur":900,"##richt":901,"##min":902,"ausge":903,"##kehr":904,"Stra":905,"Leben":906,"Ger":907,"Fr":908,"1.":909,"##rank":910,"##olog":911,"fol":912,"##eren":913,"##br":914,"müs":915,"beim":916,"of":917,"Min":918,"en":919,"197":920,"##amm":921,"##äl":922,"eigen":923,"erst":924,"anderen":925,"Grund":926,"Bl":927,"Als":928,"##stag":929,"##201":930,"##tschaft":931,"##ystem":932,"##tige":933,"##ßen":934,"ganz":935,"Mus":936,"##aupt":937,"##halb":938,"##ünf":939,"ersten":940,"##undes":941,"verl":942,"##ks":943,"##amil":944,"##anden":945,"##omp":946,"dir":947,"##äf":948,"##ER":949,"Sa":950,"pro":951,"##icher":952,"Schl":953,"##rieb":954,"##ichte":955,"##ternehmen":956,"##zt":957,"Bes":958,"##ös":959,"Mann":960,"##hä":961,"##ade":962,"##/1":963,"12":964,"Für":965,"##rum":966,"wen":967,"geb":968,"##ährend":969,"##ive":970,"##äd":971,"beg":972,"US":973,"Te":974,"##esen":975,"##ta":976,"##ußer":977,"will":978,"##äter":979,"##ander":980,"nie":981,"Pol":982,"##alen":983,"##stellen":984,"##lage":985,"##ost":986,"##ult":987,"##ip":988,"bek":989,"##uten":990,"##aum":991,"deutsch":992,"Kommission":993,"gut":994,"Le":995,"The":996,"##tre":997,"##abei":998,"Aut":999,"Europä":1000,"gehör":1001,"besch":1002,"mein":1003,"##fra":1004,"##/0":1005,"Rat":1006,"##schafts":1007,"ar":1008,"##fahren":1009,"##ww":1010,"##öffent":1011,"##ktiv":1012,"##ker":1013,"##:0":1014,"##igkeit":1015,"gleich":1016,"Gen":1017,"Bau":1018,"Bo":1019,"ihm":1020,"Menschen":1021,"##ielt":1022,"##www":1023,"War":1024,"##bild":1025,"##stra":1026,"##gung":1027,"##ha":1028,"jedoch":1029,"##ings":1030,"##off":1031,"##sche":1032,"Tra":1033,"Person":1034,"Man":1035,"führ":1036,"##schaften":1037,"Mär":1038,"damit":1039,"##licher":1040,"##30":1041,"Ne":1042,"Qu":1043,"##ott":1044,"##iff":1045,"##ange":1046,"Arbeit":1047,"Mitglied":1048,"##mittel":1049,"##orf":1050,"Jun":1051,"##:1":1052,"##ionen":1053,"##gang":1054,"##unde":1055,"##ere":1056,"son":1057,"bereits":1058,"##rech":1059,"Mo":1060,"/":1061,"selbst":1062,"##ute":1063,"##fach":1064,"##zahl":1065,"##St":1066,"Ö":1067,"gel":1068,"##schieden":1069,"Eine":1070,"##ende":1071,"##com":1072,"2016":1073,"gef":1074,"##äuf":1075,"Y":1076,"##na":1077,"ihrer":1078,"Aug":1079,"##olitik":1080,"##kon":1081,"##ierten":1082,"##hol":1083,"##als":1084,"##ichtig":1085,"##ron":1086,"##wo":1087,"for":1088,"bin":1089,"##ingen":1090,"##stellung":1091,"muss":1092,"##ister":1093,"##weg":1094,"All":1095,"etwa":1096,"##unkt":1097,"Son":1098,"seinen":1099,"Diese":1100,"##äm":1101,"##folg":1102,"wür":1103,"##fs":1104,"zusammen":1105,"Verein":1106,"##wend":1107,"##ober":1108,"##egen":1109,"Deutschland":1110,"11":1111,"##setz":1112,"##walt":1113,"##zel":1114,"Besch":1115,"##lagen":1116,"##50":1117,"##enden":1118,"##öß":1119,"##EN":1120,"##halt":1121,"##ürger":1122,"##isten":1123,"Aber":1124,"geht":1125,"##äu":1126,"##gar":1127,"müssen":1128,"##ens":1129,"Auch":1130,"##gl":1131,"Bundes":1132,"neue":1133,"u":1134,"Fahr":1135,"Jo":1136,"Ex":1137,"Produ":1138,"Part":1139,"Ende":1140,"##ym":1141,"##ac":1142,"Tag":1143,"##ienst":1144,"30":1145,"##siden":1146,"Kinder":1147,"##auer":1148,"##riff":1149,"##ritt":1150,"Jan":1151,"Euro":1152,"komm":1153,"Unternehmen":1154,"verb":1155,"##räsiden":1156,"Jul":1157,"on":1158,"Neu":1159,"##uchen":1160,"##:2":1161,"Ä":1162,"##bei":1163,"Famil":1164,"196":1165,"El":1166,"Wenn":1167,"##ilm":1168,"##nahme":1169,"Von":1170,"Schw":1171,"##mus":1172,"Fre":1173,"##ständ":1174,"März":1175,"##hin":1176,"##dr":1177,"*":1178,"Kir":1179,"##klär":1180,"heute":1181,"seinem":1182,"##ans":1183,"jetzt":1184,"##cke":1185,"doch":1186,"EU":1187,"##uer":1188,"Zusammen":1189,"Verb":1190,"##ite":1191,"##zw":1192,"##yp":1193,"einge":1194,"##nahmen":1195,"##ule":1196,"##schließ":1197,"##th":1198,"dich":1199,"##zei":1200,"##ek":1201,"eben":1202,"Mill":1203,"##enz":1204,"##innen":1205,"##:4":1206,"letz":1207,"##ruck":1208,"Durch":1209,"##5.":1210,"##asse":1211,"##hil":1212,"##ehn":1213,"##essen":1214,"al":1215,"##aaten":1216,"##mä":1217,"##ib":1218,"##nisse":1219,"##rach":1220,"194":1221,"##ogen":1222,"##av":1223,"##keiten":1224,"##änger":1225,"dieses":1226,"%":1227,"##ünd":1228,"##4.":1229,"##so":1230,"13":1231,"##ivers":1232,"##nit":1233,"Entwick":1234,"##igung":1235,"ohne":1236,"##urz":1237,"Fin":1238,"fr":1239,"##az":1240,"Sti":1241,"##CH":1242,"später":1243,"ihren":1244,"Lie":1245,"##arbeit":1246,"etwas":1247,"##rad":1248,"##ond":1249,"liegt":1250,"##eicht":1251,"##gemein":1252,"Pf":1253,"##unter":1254,"##meister":1255,"Co":1256,"and":1257,"Nov":1258,"##oten":1259,"neuen":1260,"Kön":1261,"Ober":1262,"kommen":1263,"eh":1264,"##200":1265,"##blem":1266,"##angen":1267,"kein":1268,"nun":1269,"Berlin":1270,"##chn":1271,"##zug":1272,"##spr":1273,"##tikel":1274,"Kar":1275,"##fte":1276,"##:3":1277,"##rieg":1278,"aller":1279,"fest":1280,"Haupt":1281,"Sep":1282,"Me":1283,"##immer":1284,"vier":1285,"Ort":1286,"Hin":1287,"weiß":1288,"Rei":1289,"##haf":1290,"Chr":1291,"dort":1292,"Arbeits":1293,"##sicht":1294,"worden":1295,"##ys":1296,"##äng":1297,"gest":1298,"##ko":1299,"##igt":1300,"andere":1301,"##ternational":1302,"##mar":1303,"##ame":1304,"nah":1305,"##man":1306,"##gleich":1307,"wel":1308,"##fä":1309,"##amp":1310,"##ou":1311,"##hof":1312,"##gew":1313,"Groß":1314,"##gramm":1315,"##von":1316,"##gangen":1317,"mus":1318,"##stadt":1319,"Juni":1320,"##ruppe":1321,"ob":1322,"gemein":1323,"vers":1324,"##ikan":1325,"Ur":1326,"machen":1327,"##urop":1328,"##ack":1329,"Herr":1330,"##esse":1331,"##ven":1332,"##ament":1333,"konnte":1334,"##ubl":1335,"##werk":1336,"##ations":1337,"##kauf":1338,"folgen":1339,"##tr":1340,"##org":1341,"##uar":1342,"...":1343,"##8.":1344,"##falls":1345,"##grund":1346,"##ktur":1347,"Frank":1348,"—":1349,"##rechen":1350,"Vers":1351,"Mal":1352,"##legen":1353,"größ":1354,"##tw":1355,"##stüt":1356,"verw":1357,"viele":1358,"##itzen":1359,"Bild":1360,"beiden":1361,"##tember":1362,"Ju":1363,"Hand":1364,"August":1365,"##hö":1366,"Hö":1367,"##äre":1368,"Mittel":1369,"##7.":1370,"Gl":1371,"##rag":1372,"Bereich":1373,"##:5":1374,"##ätig":1375,"Inform":1376,"während":1377,"##gaben":1378,"Ind":1379,"Wei":1380,"##chts":1381,"sagte":1382,"verschieden":1383,"##sb":1384,"##zer":1385,"Staat":1386,"Apr":1387,"##6.":1388,"##eln":1389,"##reu":1390,"erste":1391,"##old":1392,"##ment":1393,"##wohn":1394,"##hund":1395,"kam":1396,"##zeug":1397,"denn":1398,"He":1399,"Okt":1400,"Frei":1401,"##ganis":1402,"+":1403,"Wasser":1404,"Beg":1405,"Dies":1406,"Woch":1407,"##tro":1408,"Europäischen":1409,"September":1410,"Par":1411,"Mai":1412,"dabei":1413,"Schul":1414,"##ec":1415,"allem":1416,"##ünst":1417,"teil":1418,"steht":1419,"is":1420,"mal":1421,"##ina":1422,"mö":1423,"Po":1424,"##gie":1425,"##ball":1426,"sondern":1427,"Wohn":1428,"Juli":1429,"Gemeinde":1430,"ex":1431,"##ultur":1432,"Oktober":1433,"##aden":1434,"##iere":1435,"##ison":1436,"Inter":1437,"##fang":1438,"Dez":1439,"Bürger":1440,"##alien":1441,"##ingt":1442,"Poliz":1443,"##tier":1444,"##führt":1445,"alles":1446,"Richt":1447,"November":1448,"##örder":1449,"Nie":1450,"diesen":1451,"Januar":1452,"##alten":1453,"Artikel":1454,"##rot":1455,"Rück":1456,"##scheid":1457,"gab":1458,"##alis":1459,"Univers":1460,"Gra":1461,"##tigt":1462,"##reichen":1463,"sagt":1464,"##andel":1465,"Dezember":1466,"##eiden":1467,"##ele":1468,"##9.":1469,"##forder":1470,"##ätz":1471,"Dar":1472,"König":1473,"sollte":1474,"##hält":1475,"Dan":1476,"statt":1477,"[":1478,"Musik":1479,"frü":1480,"##eig":1481,"denen":1482,"April":1483,"besonder":1484,"##räsident":1485,"##iell":1486,"##kun":1487,"##itä":1488,"bra":1489,"##lauf":1490,"te":1491,"##mäß":1492,"##ativ":1493,"Jahrhund":1494,"##ringen":1495,"Prozent":1496,"##neh":1497,"##ände":1498,"##euer":1499,"##öffentlich":1500,"Lin":1501,"##htm":1502,"hät":1503,"##rieben":1504,"##ore":1505,"##co":1506,"##yn":1507,"Zwei":1508,"##tete":1509,"bef":1510,"##di":1511,"to":1512,"##immt":1513,"Platz":1514,"##ats":1515,"km":1516,"ho":1517,"##ordnung":1518,"lang":1519,"Pr":1520,"weil":1521,"Vol":1522,"einfach":1523,"gem":1524,"Nord":1525,"##fern":1526,"(2":1527,"##orgen":1528,"##ichts":1529,"##heim":1530,"##del":1531,"##genommen":1532,"aufge":1533,"##ften":1534,"fünf":1535,"Nein":1536,"Li":1537,"spiel":1538,"##bo":1539,"##ächst":1540,"Med":1541,"sehen":1542,"verst":1543,"##allen":1544,"##fo":1545,"##jähr":1546,"It":1547,"ben":1548,"Süd":1549,"Problem":1550,"195":1551,"##enk":1552,"##wohl":1553,"##ändern":1554,"##wert":1555,"##punkt":1556,"Str":1557,"befin":1558,"Nr":1559,"2.":1560,"193":1561,"&":1562,"##ache":1563,"Wo":1564,"Gegen":1565,"Ser":1566,"##ies":1567,"##raft":1568,"##jekt":1569,"##ried":1570,"##cher":1571,"entsp":1572,"bel":1573,"##ve":1574,"##up":1575,"ä":1576,"Film":1577,"##ieg":1578,"##ide":1579,"##jahr":1580,"##iner":1581,"kommt":1582,"##nten":1583,"##prä":1584,"finden":1585,"möglich":1586,"##amer":1587,"Stud":1588,"Seit":1589,"Hier":1590,"##je":1591,"Hoch":1592,"dazu":1593,"##raum":1594,"##legt":1595,"beh":1596,"##ock":1597,"Entwicklung":1598,"Gew":1599,"Best":1600,"##schri":1601,"##sst":1602,"##arlament":1603,"Feb":1604,"hatten":1605,"Ihre":1606,"nichts":1607,"darauf":1608,"Ihnen":1609,"##emen":1610,"##stein":1611,"##itu":1612,"##aar":1613,"Personen":1614,"Fol":1615,"zun":1616,"blei":1617,"würde":1618,"ja":1619,"gemeinsam":1620,"##gabe":1621,"Art":1622,"rund":1623,"##lossen":1624,"##ager":1625,"frei":1626,"##sterreich":1627,"##ahmen":1628,"Bed":1629,"##afür":1630,"ne":1631,"##ählt":1632,"weitere":1633,"#":1634,"Inst":1635,"bie":1636,"##uft":1637,"##unst":1638,"##umen":1639,"Seite":1640,"Bar":1641,"##dings":1642,"##ustrie":1643,"##Sch":1644,"Namen":1645,"##eitung":1646,"##obil":1647,"##opp":1648,"##itte":1649,"##echsel":1650,"##feld":1651,"Fuß":1652,"##ennt":1653,"##ellschaft":1654,"##eile":1655,"We":1656,"Mün":1657,"##mals":1658,"Polizei":1659,"##riv":1660,"Gott":1661,"##bach":1662,"2015":1663,"Zahl":1664,"»":1665,"##:00":1666,"ersch":1667,"lassen":1668,"##schutz":1669,"##Bl":1670,"##bung":1671,"##kten":1672,"##welt":1673,"Gemeinschaft":1674,"Rahmen":1675,"##unktion":1676,"ch":1677,"##ehl":1678,"##orn":1679,"Landes":1680,"sol":1681,"##utter":1682,"##itel":1683,"##führung":1684,"Sicher":1685,"##ruktur":1686,"##nell":1687,"Fall":1688,"##bet":1689,"##ruar":1690,"##anst":1691,"##affen":1692,"25":1693,"##rik":1694,"##bahn":1695,"##25":1696,"##achsen":1697,"##arten":1698,"em":1699,"Stand":1700,"deren":1701,"Form":1702,"Don":1703,"##schnit":1704,"Frauen":1705,"##iga":1706,"##tiert":1707,"hö":1708,"##verb":1709,"also":1710,"##lex":1711,"##bildung":1712,"##erk":1713,"woll":1714,"##racht":1715,"Fest":1716,"meine":1717,"Daten":1718,"##ai":1719,"erfolg":1720,"Februar":1721,"##ruppen":1722,"##sted":1723,"voll":1724,"arb":1725,"##ice":1726,"##leist":1727,"##reg":1728,"##inde":1729,"##rist":1730,"##schied":1731,"##ity":1732,"(*":1733,"##els":1734,"21":1735,"wegen":1736,"##heits":1737,"##ont":1738,"##ax":1739,"##....":1740,"##ßnahmen":1741,"2010":1742,"Lu":1743,"Em":1744,"##asst":1745,"einz":1746,"##bert":1747,"##annte":1748,"Ad":1749,"##grün":1750,"##inen":1751,"schw":1752,"Nieder":1753,"Parlament":1754,"ü":1755,"##ublik":1756,"Kap":1757,"##isk":1758,"Näch":1759,"not":1760,"letzten":1761,"##erst":1762,"##echs":1763,"##straße":1764,"sicher":1765,"##echn":1766,"werde":1767,"##vo":1768,"außer":1769,"wissen":1770,"stehen":1771,"##zeichnet":1772,"th":1773,"Lebens":1774,"Christ":1775,"Ob":1776,"Hil":1777,"##ommer":1778,"Millionen":1779,"##platz":1780,"wollen":1781,"##ct":1782,"##treten":1783,"Weiter":1784,"22":1785,"Region":1786,"##gesamt":1787,"erklär":1788,"##gegen":1789,"##aur":1790,"Rechts":1791,"##werb":1792,"großen":1793,"##uropä":1794,"##8,":1795,"Sam":1796,"Entscheid":1797,"##ologie":1798,"Flug":1799,"Wahl":1800,"##-1":1801,"davon":1802,"##schlag":1803,"##WG":1804,"##gesetzt":1805,"gehen":1806,"##-0":1807,"##ätze":1808,"Beh":1809,"Weg":1810,"##ckt":1811,"Saison":1812,"einige":1813,"Mehr":1814,"##ator":1815,"allen":1816,"##hand":1817,"##ichten":1818,"##zung":1819,"##one":1820,"##wirtschaft":1821,"große":1822,"##klich":1823,"##chten":1824,"##dete":1825,"##staaten":1826,"erz":1827,"or":1828,"Buch":1829,"dessen":1830,"tra":1831,"##In":1832,"##erin":1833,"Kunst":1834,"##tschafts":1835,"##ennen":1836,"##zieh":1837,"hast":1838,"einmal":1839,"##agt":1840,"##ußen":1841,"##urs":1842,"##alb":1843,"##olf":1844,"Jugend":1845,"el":1846,"50":1847,"Zug":1848,"##öst":1849,"Nächte":1850,"Forsch":1851,"sollen":1852,"##rauch":1853,"##arr":1854,"##lungen":1855,"##kunft":1856,"##gestellt":1857,"##ons":1858,"Dem":1859,"ihrem":1860,"Ziel":1861,"##teilung":1862,"##schw":1863,"zahl":1864,"##ogra":1865,"##ath":1866,"Su":1867,"##aß":1868,"Europa":1869,"##22":1870,"##are":1871,"offen":1872,"Is":1873,"##annten":1874,"##einander":1875,"Ol":1876,"dafür":1877,"100":1878,"bede":1879,"Markt":1880,"Verl":1881,"könnte":1882,"##stoff":1883,"##schluss":1884,"##err":1885,"##ismus":1886,"##utlich":1887,"##bereich":1888,"##stens":1889,"##uhr":1890,"Eis":1891,"Gener":1892,"##199":1893,"##atür":1894,"2009":1895,"##red":1896,"wäre":1897,"polit":1898,"##oc":1899,"2011":1900,"kurz":1901,"Sk":1902,"besser":1903,"Geld":1904,"##ampf":1905,"##ühl":1906,"Finanz":1907,"##que":1908,"entwick":1909,"23":1910,"##/201":1911,"##spro":1912,"tun":1913,"##minister":1914,"Jahres":1915,"##tlich":1916,"National":1917,"erh":1918,"ra":1919,"##rän":1920,"ihnen":1921,"##recht":1922,"##assung":1923,"Zw":1924,"verm":1925,"##An":1926,"X":1927,"##ES":1928,"II":1929,"##ase":1930,"##inger":1931,"international":1932,"inner":1933,"##schule":1934,"##andelt":1935,"##wort":1936,"##igten":1937,"##sh":1938,"Familie":1939,"##\")":1940,"##ufen":1941,"New":1942,"schwer":1943,"##osten":1944,"Bel":1945,"##üss":1946,"##ure":1947,"Dienst":1948,"##ign":1949,"gehört":1950,"##schul":1951,"##vest":1952,"bekannt":1953,"##eitet":1954,"24":1955,"##anzös":1956,"erhalten":1957,"##nehmen":1958,"Au":1959,"##zogen":1960,"##ondere":1961,"Ergeb":1962,"##lä":1963,"##heiten":1964,"##isches":1965,"ebenfalls":1966,"##osition":1967,"Met":1968,"erw":1969,"##alter":1970,"Fern":1971,"##ichtet":1972,"3.":1973,"Bahn":1974,"abge":1975,"Hol":1976,"##endet":1977,"##arbeiter":1978,"##wahl":1979,"##18":1980,"Je":1981,"##ull":1982,"Lehr":1983,"Techn":1984,"wichtig":1985,"sagen":1986,"##reffen":1987,"heiß":1988,"2014":1989,"Ph":1990,"##achte":1991,"?":1992,"lange":1993,"##urt":1994,"Des":1995,"##inter":1996,"le":1997,"##kreis":1998,"2012":1999,"##EI":2000,"Sport":2001,"##AN":2002,"##ema":2003,"##mo":2004,"ging":2005,"##son":2006,"ed":2007,"Ka":2008,"##cker":2009,"##ome":2010,"Cl":2011,"weit":2012,"##ritten":2013,"2013":2014,"System":2015,"##ölker":2016,"Politik":2017,"2007":2018,"Hotel":2019,"Preis":2020,"it":2021,"Nicht":2022,"##ote":2023,"##ester":2024,"Den":2025,"dah":2026,"##llt":2027,"##ied":2028,"##kr":2029,"##änge":2030,"Verkehr":2031,"_":2032,"##elle":2033,"##15":2034,"Dr":2035,"##nt":2036,"San":2037,"Ha":2038,"Gel":2039,"##oss":2040,"##uche":2041,"##arm":2042,"Fot":2043,"At":2044,"##fel":2045,"europä":2046,"ir":2047,"Kirche":2048,"Bay":2049,"##istor":2050,"##alität":2051,"Schwei":2052,"12.":2053,"Bur":2054,"Män":2055,"##ail":2056,"##besondere":2057,"##spl":2058,"x":2059,"##gehen":2060,"##tragen":2061,"##opf":2062,"ern":2063,"##,5":2064,"Sal":2065,"##emal":2066,"unsere":2067,"##ffiz":2068,"Doch":2069,"Sozial":2070,"##eigt":2071,"##3)":2072,"y":2073,"##eisten":2074,"##ative":2075,"Sohn":2076,"La":2077,"schließ":2078,"jewei":2079,"deutschen":2080,"inter":2081,"geben":2082,"schnell":2083,"##xt":2084,"Natur":2085,"##hle":2086,"“":2087,"glau":2088,"Einsatz":2089,"##sol":2090,"##ppen":2091,"##entr":2092,"Mein":2093,"##ider":2094,"heraus":2095,"Geschäf":2096,"##äude":2097,"##iew":2098,"##ielleicht":2099,"bzw":2100,"Regel":2101,"##nehmer":2102,"zunächst":2103,"Prof":2104,"##gte":2105,"##ranken":2106,"##ka":2107,"##räge":2108,"##ums":2109,"##ise":2110,"##80":2111,"##setzung":2112,"##of":2113,"##ül":2114,"##ktor":2115,"Sel":2116,"Team":2117,"br":2118,"'":2119,"€":2120,"anderem":2121,"macht":2122,"##ergie":2123,"##reise":2124,"entst":2125,"Möglich":2126,"Eigen":2127,"Beispiel":2128,"klein":2129,"hoch":2130,"##wendung":2131,"##anten":2132,"näch":2133,"wohl":2134,"Bis":2135,"Ben":2136,"##utt":2137,"##stelle":2138,"##ilt":2139,"Präsident":2140,"##ette":2141,"10.":2142,"19.":2143,"##ller":2144,"hinter":2145,"Ant":2146,"(\"":2147,"2018":2148,"allerdings":2149,"##EWG":2150,"##ämpf":2151,"##gn":2152,"Verwalt":2153,"##schein":2154,"##markt":2155,"##pa":2156,"befindet":2157,"##hann":2158,"Pat":2159,"##60":2160,"40":2161,"Tran":2162,"Regierung":2163,"wollte":2164,"##linie":2165,"Geh":2166,"Frage":2167,"Wochen":2168,"gemacht":2169,"sa":2170,"##iels":2171,"Informationen":2172,"##nete":2173,"Kultur":2174,"##fung":2175,"Mich":2176,"##piel":2177,"Familien":2178,"zweiten":2179,"##lichkeit":2180,"##sitzen":2181,"Di":2182,"bist":2183,"Tod":2184,"##bed":2185,"##gebiet":2186,"##ca":2187,"##altung":2188,"Krieg":2189,"##21":2190,"##tim":2191,"##str":2192,"reg":2193,"##eitag":2194,"##schuss":2195,"##ierungs":2196,"Wirtschafts":2197,"neben":2198,"Mil":2199,"Fir":2200,"Anfang":2201,"sozial":2202,"Partei":2203,"##bel":2204,"##tels":2205,"##äche":2206,"##beh":2207,"##rotz":2208,"##sy":2209,"##uelle":2210,"fast":2211,"Rep":2212,"2006":2213,"ehemal":2214,"USA":2215,"Tur":2216,"##24":2217,"Neben":2218,"##reiche":2219,"Mitgliedstaaten":2220,"20.":2221,"Ham":2222,"Union":2223,"Grün":2224,"##wehr":2225,"ur":2226,"Rad":2227,"##häng":2228,"##onnen":2229,"Wissen":2230,"##stück":2231,"Gesamt":2232,"eigenen":2233,"##ins":2234,"Kreis":2235,"##verkehr":2236,"Bas":2237,"##UN":2238,"West":2239,"Fer":2240,"##ly":2241,"##bend":2242,"##andels":2243,"per":2244,"Betrieb":2245,"Programm":2246,"Kat":2247,"##inner":2248,"##achten":2249,"Vater":2250,"##li":2251,"##ären":2252,"hab":2253,"##licht":2254,"Geschichte":2255,"##eint":2256,"gerade":2257,"hätte":2258,"##fr":2259,"Titel":2260,"se":2261,"##reicht":2262,"##besser":2263,"gegenüber":2264,"Entscheidung":2265,"verfü":2266,"bil":2267,"Dann":2268,"##äftig":2269,"Tor":2270,"Leist":2271,"##aler":2272,"Res":2273,"##wohner":2274,"Feuer":2275,"welche":2276,"##ilder":2277,"##zess":2278,"##lang":2279,"Rates":2280,"##itäten":2281,"##ettbe":2282,"##tieren":2283,"##use":2284,"Berg":2285,"Kn":2286,"##Ver":2287,"##zir":2288,"##etzen":2289,"Beruf":2290,"##uchs":2291,"##druck":2292,"Sonn":2293,"leben":2294,"besteht":2295,"zwar":2296,"##frei":2297,"möchte":2298,"##Pro":2299,"sollten":2300,"Mutter":2301,"Ist":2302,"weniger":2303,"Fried":2304,"##weit":2305,"akt":2306,"2008":2307,"##40":2308,"dür":2309,"##reiben":2310,"Denn":2311,"##ork":2312,"##dorf":2313,"PM":2314,"mo":2315,"##örper":2316,"Kil":2317,"Sommer":2318,"sechs":2319,"##ört":2320,"Heim":2321,"einzel":2322,"Frü":2323,"##pen":2324,"Reich":2325,"erhielt":2326,"##sa":2327,"##staat":2328,"wahr":2329,"Während":2330,"Projekt":2331,"11.":2332,"Bü":2333,"##iver":2334,"##iker":2335,"Ang":2336,"Rom":2337,"Erst":2338,"süd":2339,"bestimm":2340,"Johann":2341,"Band":2342,"##indung":2343,"##uren":2344,"##ix":2345,"##rache":2346,"dan":2347,"gilt":2348,"oft":2349,"##teilt":2350,"##cl":2351,"##ire":2352,"##etten":2353,"##ets":2354,"##ipp":2355,"Staats":2356,"stell":2357,"4.":2358,"Ru":2359,"Kom":2360,"gar":2361,"Besuch":2362,"lä":2363,"Zum":2364,"##glichen":2365,"Werk":2366,"Jahrhundert":2367,"##weis":2368,"15.":2369,"verschiedenen":2370,"##4)":2371,"##sport":2372,"Fußball":2373,"##hel":2374,"Wien":2375,"genau":2376,"##etter":2377,"zehn":2378,"Höhe":2379,"##schnitt":2380,"##iges":2381,"##hang":2382,"Plan":2383,"##antwort":2384,"##&#":2385,"Universität":2386,"##part":2387,"##1)":2388,"##uter":2389,"2017":2390,"Dam":2391,"##völker":2392,"begann":2393,"Fach":2394,"Car":2395,"##line":2396,"##was":2397,"unterstüt":2398,"Zur":2399,"Maßnahmen":2400,"insbesondere":2401,"Straße":2402,"umf":2403,"##die":2404,"##sl":2405,"pl":2406,"Con":2407,"##atürlich":2408,"vielen":2409,"##.)":2410,"##nder":2411,"Verordnung":2412,"Alle":2413,"Sitz":2414,"star":2415,"##90":2416,"##gef":2417,"##IS":2418,"##eitete":2419,"##dre":2420,"##zü":2421,"jeder":2422,"##loss":2423,"Alter":2424,"wenig":2425,"Tr":2426,"##lungs":2427,"öffent":2428,"##möglich":2429,"##ari":2430,"Produktion":2431,"##hein":2432,"13.":2433,"\".":2434,"##dienst":2435,"##iter":2436,"Tour":2437,"insgesamt":2438,"sogar":2439,"##unkte":2440,"seien":2441,"18.":2442,"Luft":2443,"Kü":2444,"Dabei":2445,"Per":2446,"Fa":2447,"mehrere":2448,"Frankreich":2449,"keinen":2450,"Tür":2451,"##ienen":2452,"besonders":2453,"2005":2454,"##geh":2455,"spe":2456,"Nor":2457,"klar":2458,"Park":2459,"get":2460,"##leben":2461,"Wor":2462,"190":2463,"##ossen":2464,"##liegen":2465,"(19":2466,"bisher":2467,"Intern":2468,"französ":2469,"bew":2470,"Umwelt":2471,"wich":2472,"Außer":2473,"Ra":2474,"Stre":2475,"Freitag":2476,"Samstag":2477,"Dieser":2478,"##scht":2479,"musste":2480,"##ören":2481,"##uen":2482,"##vin":2483,"Geschäfts":2484,"##23":2485,"Österreich":2486,"##2)":2487,"##ief":2488,"##17":2489,"##aul":2490,"##des":2491,"national":2492,"Will":2493,"##utung":2494,"gewesen":2495,"zie":2496,"##blick":2497,"Sonntag":2498,"Dort":2499,"kom":2500,"##16":2501,"##oph":2502,"##kir":2503,"veröffentlich":2504,"innerhalb":2505,"Ange":2506,"##par":2507,"recht":2508,"##stat":2509,"Auto":2510,"Fä":2511,"##etzte":2512,"##rigen":2513,"Recht":2514,"=":2515,"Komp":2516,"Energie":2517,"##wär":2518,"ro":2519,"Raum":2520,"Gruppe":2521,"Einzel":2522,"Web":2523,"##ellen":2524,"##da":2525,"Arch":2526,"##rt":2527,"##richten":2528,"«":2529,")":2530,"##zeitig":2531,"##erv":2532,"27":2533,"bietet":2534,"##tler":2535,"##EL":2536,"##tiger":2537,"##fort":2538,"##usätz":2539,"schl":2540,"##uchte":2541,"##IN":2542,"wirklich":2543,"Gast":2544,"Name":2545,"dein":2546,"##itter":2547,"##hlen":2548,"16.":2549,"end":2550,"##utzt":2551,"Stell":2552,"##zimmer":2553,"##wand":2554,"##richtung":2555,"##erne":2556,"Freund":2557,"Oh":2558,"Stat":2559,"Phil":2560,"erg":2561,"##fon":2562,"nahm":2563,"Nacht":2564,"##unt":2565,"##rieden":2566,"##ktionen":2567,"##PD":2568,"Sh":2569,"stark":2570,"##verein":2571,"Rolle":2572,"Dir":2573,"##anken":2574,"##ance":2575,"##26":2576,"##int":2577,"##kung":2578,"Meter":2579,"17.":2580,"gesam":2581,"##rück":2582,"bed":2583,"##14":2584,"##sehen":2585,"##eier":2586,"früher":2587,"Italien":2588,">":2589,"##ula":2590,"München":2591,"Dien":2592,"##gangenen":2593,"##frage":2594,"Rest":2595,"##arbeiten":2596,"Vertrag":2597,"##ändert":2598,"##nach":2599,"##ingungen":2600,"2000":2601,"schön":2602,"##schriften":2603,"Herz":2604,"Peter":2605,"##ettbewerb":2606,"qu":2607,"Port":2608,"##hei":2609,"Pap":2610,"Lauf":2611,"Deutschen":2612,"##ometer":2613,"Lei":2614,"##uell":2615,"##po":2616,"Sol":2617,"seines":2618,"Ost":2619,"Thema":2620,"##ja":2621,"##system":2622,"deutlich":2623,"euch":2624,"##ichter":2625,"Alt":2626,"Seiten":2627,"5.":2628,"empf":2629,"##gesehen":2630,"##atten":2631,"Gut":2632,"Minuten":2633,"techn":2634,"ö":2635,"##“.":2636,"##utzen":2637,"Mitarbeiter":2638,"##Un":2639,"##27":2640,"##ika":2641,"weiteren":2642,"findet":2643,"Wert":2644,"##wagen":2645,"##steller":2646,"##sie":2647,"##voll":2648,"##laub":2649,"Zusammenarbeit":2650,"##ef":2651,"zeigt":2652,"Sen":2653,"##reifen":2654,"##mb":2655,"Hilfe":2656,"liegen":2657,"##krieg":2658,"##iti":2659,"##liches":2660,"14.":2661,"meisten":2662,"Zimmer":2663,"Eben":2664,"##uellen":2665,"Verfü":2666,"Änder":2667,"##van":2668,"##sn":2669,"##achst":2670,"sieht":2671,"Mark":2672,"Gebiet":2673,"Bru":2674,"##13":2675,"##nerstag":2676,"##49":2677,"##ritte":2678,"##Jähr":2679,"stand":2680,"##scheiden":2681,"Wieder":2682,"Kosten":2683,"Straßen":2684,"Bede":2685,"Organis":2686,"##enzen":2687,"Hel":2688,"Bad":2689,"##ry":2690,"2004":2691,"Bra":2692,"##ymp":2693,"##ünstler":2694,"##neten":2695,"##“,":2696,"Vert":2697,"##anzen":2698,"##wiesen":2699,"unterschied":2700,"heißt":2701,"Sein":2702,"##ital":2703,"##such":2704,"ind":2705,"(1)":2706,"Mag":2707,"Schutz":2708,"1,":2709,"##port":2710,"##ON":2711,"##äum":2712,"Unterstüt":2713,"prä":2714,"†":2715,"Seine":2716,"##stre":2717,"Volks":2718,"26":2719,"Kin":2720,"gl":2721,"blie":2722,"Tel":2723,"Verfahren":2724,"Industrie":2725,"##5)":2726,"##ragen":2727,"##ael":2728,"konnten":2729,"##fäh":2730,"##zip":2731,"##ochter":2732,"##ächlich":2733,"##ummer":2734,"##aterial":2735,"Kan":2736,"hinaus":2737,"gegrün":2738,"##ersön":2739,"Beit":2740,"Tage":2741,"##own":2742,"unserer":2743,"##under":2744,"##ählen":2745,"ei":2746,"Lage":2747,"##otor":2748,"Richtung":2749,"Förder":2750,"##ee":2751,"Selbst":2752,"üb":2753,"los":2754,"weg":2755,"FC":2756,"##29":2757,"führt":2758,"##mel":2759,"­":2760,"##aup":2761,"##scher":2762,"##AT":2763,"aufgrund":2764,"Kommun":2765,"Abend":2766,"##28":2767,"##istischen":2768,"##auen":2769,"Bevölker":2770,"Ele":2771,"nehmen":2772,"##halts":2773,"Alb":2774,"Meister":2775,"Mer":2776,"Donnerstag":2777,"##igte":2778,"##üler":2779,"##omit":2780,"##geber":2781,"##rift":2782,"##no":2783,"bevor":2784,"##1,":2785,"##geord":2786,"##yr":2787,"##ehm":2788,"2016,":2789,"##6)":2790,"29":2791,"Mitte":2792,"##gten":2793,"##igkeiten":2794,"Dorf":2795,"##por":2796,"Wald":2797,"Mart":2798,"darüber":2799,"##isse":2800,"form":2801,"##ong":2802,"Wil":2803,"gewann":2804,"On":2805,"##anien":2806,"Schiff":2807,"gegeben":2808,"jeden":2809,"Bi":2810,"Nä":2811,"Stein":2812,"Woche":2813,"##nahm":2814,"##burger":2815,"Ta":2816,"##wig":2817,"Ide":2818,"Staaten":2819,"60":2820,"fand":2821,"direkt":2822,"Go":2823,"kleinen":2824,"##rägt":2825,"##UNG":2826,"würden":2827,"##gruppe":2828,"##len":2829,"##ieten":2830,"##EG":2831,"Kraft":2832,"##87":2833,"6.":2834,"Führ":2835,"##hard":2836,"Mr":2837,"angeb":2838,"bleiben":2839,"##wegen":2840,"Kind":2841,"##cen":2842,"Gesetz":2843,"##krä":2844,"##omin":2845,"##ana":2846,"Aust":2847,"finanz":2848,"##AR":2849,"##89":2850,"Jahrhunder":2851,"Kunden":2852,"##rug":2853,"##pe":2854,"##stieg":2855,"Männer":2856,"##2,":2857,"Bedeutung":2858,"Außerdem":2859,"Minister":2860,"Gleich":2861,"##agement":2862,"Nur":2863,"Gebäude":2864,"##eiger":2865,"erwar":2866,"kleine":2867,"Beschäftig":2868,"##mö":2869,"##fahrt":2870,"##gem":2871,"vergangenen":2872,"##alif":2873,"Invest":2874,"9.":2875,"lässt":2876,"##duz":2877,"To":2878,"##TC":2879,"##onen":2880,"Veranst":2881,"Mitglieder":2882,"##weiter":2883,"##rid":2884,"30.":2885,"Insel":2886,"lin":2887,"##wesen":2888,"##hren":2889,"##pg":2890,"Dat":2891,"##70":2892,"##weisen":2893,"erstmals":2894,"##itär":2895,"daher":2896,"##esent":2897,"EUR":2898,"##ektor":2899,"Folge":2900,"##deten":2901,"##immung":2902,"Eng":2903,"##uk":2904,"##schlä":2905,"##geln":2906,"##atte":2907,"##schinen":2908,"##ehe":2909,"Warum":2910,"Kur":2911,"##ST":2912,"schließlich":2913,"Länder":2914,"##haupt":2915,"(3":2916,"gesagt":2917,"Kr":2918,"##hausen":2919,"##ci":2920,"##spe":2921,"##ammer":2922,"Anzahl":2923,"wirtschaft":2924,"Nutz":2925,"sowohl":2926,"##reuz":2927,"Ins":2928,"##zuf":2929,"##prü":2930,"##liga":2931,"Stunden":2932,"hervor":2933,"##ösung":2934,"##aly":2935,"##ps":2936,"##ündung":2937,"Ländern":2938,"Klein":2939,"##äufig":2940,"Tem":2941,"at":2942,"(0":2943,"di":2944,"##RL":2945,"Wind":2946,"21.":2947,"folgenden":2948,"##geschlossen":2949,"##go":2950,"##fest":2951,"stellt":2952,"##sprün":2953,"09":2954,"##baren":2955,"##ae":2956,"##pfer":2957,"Fragen":2958,"Bericht":2959,"##deutsch":2960,"Gesund":2961,"##/17":2962,"pass":2963,"Amt":2964,"Tochter":2965,"##uh":2966,"##aufen":2967,"Internet":2968,"heu":2969,"##öt":2970,"7.":2971,"##okrat":2972,"##urr":2973,"##gor":2974,"##vol":2975,"Sicherheit":2976,"äl":2977,"##itt":2978,"##wissen":2979,"Haf":2980,"##ikanischen":2981,"bitte":2982,"Mode":2983,"Augen":2984,"spielte":2985,"##utet":2986,"bestehen":2987,"Sü":2988,"##ativen":2989,"Innen":2990,"##folge":2991,"##oppel":2992,"Erfolg":2993,"Vier":2994,"deutsche":2995,"05":2996,"nächsten":2997,"Viel":2998,"Posted":2999,"1990":3000,"##spiels":3001,"##mme":3002,"Ter":3003,"Pla":3004,"Prä":3005,"##furt":3006,"Hei":3007,"##/9":3008,"##twoch":3009,"##85":3010,"##ücke":3011,"Hall":3012,"führte":3013,"gute":3014,"International":3015,"entfern":3016,"Winter":3017,"Gesellschaft":3018,"fort":3019,"189":3020,"##plan":3021,"wobei":3022,"Verfügung":3023,"##änden":3024,"fl":3025,"##wür":3026,"Af":3027,"22.":3028,"##res":3029,"Ak":3030,"zusätz":3031,"Erd":3032,"entsprechen":3033,"Funktion":3034,"04":3035,"##ement":3036,"Eltern":3037,"verwendet":3038,"##politik":3039,"##tischen":3040,"##ware":3041,"##jekte":3042,"John":3043,"##takt":3044,"##apan":3045,"##ziehen":3046,"##iser":3047,"Gar":3048,"aktiv":3049,"gefunden":3050,"##hi":3051,"##zeichnung":3052,"Hinter":3053,"jem":3054,"stellen":3055,"bringen":3056,"07":3057,"##komm":3058,"##/16":3059,"bezeichnet":3060,"jeweils":3061,"##ile":3062,"##führer":3063,"Fran":3064,"##kungen":3065,"##schließend":3066,"##met":3067,"Sc":3068,"Ir":3069,"this":3070,"Europäische":3071,"Flü":3072,"##itze":3073,"##bare":3074,"Liste":3075,"CD":3076,"Dieses":3077,"##produ":3078,"8.":3079,"000":3080,"##omat":3081,"May":3082,"##unk":3083,"Richtlinie":3084,"Unterstützung":3085,"Not":3086,"##räger":3087,"Comp":3088,"UN":3089,"kosten":3090,"Leute":3091,"Krit":3092,"Tele":3093,"hel":3094,"##vent":3095,"leg":3096,"##tegr":3097,"Damit":3098,"##seite":3099,"Heil":3100,"##ument":3101,"##abel":3102,"##iken":3103,"Do":3104,"stud":3105,"Gä":3106,"Che":3107,"##best":3108,"zuf":3109,"acht":3110,"##schrift":3111,"Netz":3112,"Hein":3113,"Schule":3114,"Bürgermeister":3115,"##ions":3116,"Meer":3117,"##fuhr":3118,"##aren":3119,"##Ar":3120,"##inge":3121,"##zte":3122,"25.":3123,"##ätzen":3124,"##neut":3125,"##tens":3126,"##seh":3127,"##arch":3128,"erreich":3129,"##abhäng":3130,"##ars":3131,"##45":3132,"Mü":3133,"##buch":3134,"##ikation":3135,"Drei":3136,"verkauf":3137,"##treter":3138,"00":3139,"Boden":3140,"Gef":3141,"General":3142,"Mittwoch":3143,"##samm":3144,"##ese":3145,"Fort":3146,"Michael":3147,"##wor":3148,"Holz":3149,"##tin":3150,"ser":3151,"##izin":3152,"Kilometer":3153,"Zwischen":3154,"Angeb":3155,"welt":3156,"##zentr":3157,"Bank":3158,"europäischen":3159,"ABl":3160,"alten":3161,"Ern":3162,"##für":3163,"EG":3164,"Muse":3165,"schle":3166,"08":3167,"Ok":3168,"##napp":3169,"Köl":3170,"Nun":3171,"Handels":3172,"##kn":3173,"##ähn":3174,"hätten":3175,"Sil":3176,"31.":3177,"sieben":3178,"##ith":3179,"einigen":3180,"genannt":3181,"##gien":3182,"muß":3183,"##eder":3184,"##urm":3185,"##wasser":3186,"vert":3187,"Außen":3188,"Druck":3189,"Vo":3190,"##zentrum":3191,"damals":3192,"Pal":3193,"##ish":3194,"##onds":3195,"##zeuge":3196,"absol":3197,"##llig":3198,"##öhn":3199,"##ages":3200,"##leistungen":3201,"Partner":3202,"Bus":3203,"Mannschaft":3204,"Tre":3205,"##ene":3206,"Weiß":3207,"Beginn":3208,"##adem":3209,"•":3210,"##folgt":3211,"##uth":3212,"höch":3213,"##ksam":3214,"Kirchen":3215,"##teten":3216,"Post":3217,"höher":3218,"##ufe":3219,"ähn":3220,"##lassen":3221,"##11":3222,"##itäts":3223,"führen":3224,"##Er":3225,"verd":3226,"Unser":3227,"Wort":3228,"##3,":3229,"##ahren":3230,"Nähe":3231,"##schließlich":3232,"Zukunft":3233,"##eien":3234,"##86":3235,"Bern":3236,"##äuft":3237,"##2-":3238,"##ole":3239,"Wirtschaft":3240,"Na":3241,"Russ":3242,"80":3243,"Zust":3244,"##orge":3245,"zweite":3246,"Ed":3247,"Schüler":3248,"##reiten":3249,"Char":3250,"laut":3251,"Vorsitzen":3252,"AM":3253,"Bayern":3254,"wechsel":3255,"Wein":3256,"##bin":3257,"##rakti":3258,"##struktur":3259,"halten":3260,"##arf":3261,"##user":3262,"Kopf":3263,"Prin":3264,"Steuer":3265,"Spieler":3266,"##ierungen":3267,"06":3268,"##äte":3269,"##see":3270,"gesehen":3271,"##hc":3272,"Jahrhunderts":3273,"##verfahren":3274,"Schm":3275,"Friedrich":3276,"bleibt":3277,"Waren":3278,"Op":3279,"##etzung":3280,"##isierung":3281,"priv":3282,"##omas":3283,"Amts":3284,"nieder":3285,"Gu":3286,"##itut":3287,"##ständig":3288,"Priv":3289,"Jetzt":3290,"##ferenz":3291,"##7)":3292,"##spielsweise":3293,"Fil":3294,"##auspiel":3295,"##76":3296,"Kranken":3297,"##isiert":3298,"##bs":3299,"##zi":3300,"##jpg":3301,"##ram":3302,"##rom":3303,"##osit":3304,"##onn":3305,"##gesetz":3306,"##üsse":3307,"##ält":3308,"28":3309,"28.":3310,"##tif":3311,"vielleicht":3312,"alt":3313,"##abil":3314,"Spe":3315,"##how":3316,"##ose":3317,"darf":3318,"24.":3319,"Vide":3320,"Angaben":3321,"##gelegt":3322,"##mäßig":3323,"beide":3324,"Far":3325,"##laden":3326,"nahe":3327,"##immen":3328,"Erw":3329,"!":3330,"##zept":3331,"Franz":3332,"Blick":3333,"##rop":3334,"spielen":3335,"Erfahr":3336,"##geführt":3337,"erklärt":3338,"##.000":3339,"##wa":3340,"##statt":3341,"##8)":3342,"ru":3343,"##jo":3344,"##öffnet":3345,"Also":3346,"##ima":3347,"gehören":3348,"Probleme":3349,"##ound":3350,"Dre":3351,"##/-":3352,"erneut":3353,"handelt":3354,"##test":3355,"##IT":3356,"beteil":3357,"Möglichkeit":3358,"##ützen":3359,"##yl":3360,"##ino":3361,"##ädchen":3362,"Kontro":3363,"##äft":3364,"##5,":3365,"##bek":3366,"##chter":3367,"besten":3368,"verschiedene":3369,"Vort":3370,"##ängen":3371,"##ituation":3372,"daran":3373,"erforder":3374,"##oper":3375,"##ieß":3376,"##ius":3377,"trat":3378,"Eisen":3379,"##glieder":3380,"##hilfe":3381,"dre":3382,"01":3383,"erk":3384,"allein":3385,"könnten":3386,"##ppe":3387,"23.":3388,"Früh":3389,"rel":3390,"##zig":3391,"natürlich":3392,"Montag":3393,"##con":3394,"Lo":3395,"Ged":3396,"cm":3397,"bl":3398,"##zep":3399,"ganze":3400,"##unge":3401,"Einwohner":3402,"##sto":3403,"Wettbewerb":3404,"##.,":3405,"Kor":3406,"Zent":3407,"##ica":3408,"##reisen":3409,"##adurch":3410,"##php":3411,"ließ":3412,"by":3413,"##dung":3414,"grün":3415,"ca":3416,"gehörte":3417,"##sprech":3418,"##+1":3419,"##öm":3420,"##nissen":3421,"29.":3422,"##ight":3423,"Tages":3424,"##inst":3425,"##länd":3426,"##hung":3427,"Bro":3428,"]":3429,"##wur":3430,"Städ":3431,"##tor":3432,"App":3433,"##ches":3434,"##US":3435,"##berger":3436,"stär":3437,"Max":3438,"Pass":3439,"trotz":3440,"##techn":3441,"##alk":3442,"##ätigkeit":3443,"Amer":3444,"Ander":3445,"##omen":3446,"##yer":3447,"̈":3448,"UTC":3449,"##uden":3450,"##ille":3451,"blieb":3452,"##kur":3453,"2003":3454,"irgend":3455,"Brü":3456,"##oster":3457,"histor":3458,"entfernt":3459,"##orben":3460,"##räum":3461,"deshalb":3462,"Nachdem":3463,";":3464,"##fre":3465,"deutscher":3466,"##akter":3467,"eigene":3468,"##affe":3469,"brit":3470,"bereit":3471,"##reibt":3472,"##uck":3473,"Hotels":3474,"Alex":3475,"Reihe":3476,"zudem":3477,"##ua":3478,"Öff":3479,"Burg":3480,"Bevölkerung":3481,"##sych":3482,"03":3483,"sonst":3484,"Weise":3485,"ni":3486,"##jährige":3487,"interess":3488,"zuvor":3489,"##-,":3490,"##html":3491,"##ausch":3492,"##stellungen":3493,"##ution":3494,"Ausbildung":3495,"arbeiten":3496,"tätig":3497,"27.":3498,"##ABl":3499,"Ergebnisse":3500,"##rachen":3501,"zeit":3502,"##lad":3503,"errich":3504,"Ass":3505,"paar":3506,"##tierte":3507,"Ren":3508,"##altet":3509,"ide":3510,"##folgen":3511,"##beg":3512,"##ächen":3513,"gek":3514,"##AL":3515,"Parlaments":3516,"35":3517,"zeigen":3518,"##nei":3519,"##ücks":3520,"##richtungen":3521,"URL":3522,"##4,":3523,"##fassung":3524,"##usst":3525,"##haft":3526,"Kolle":3527,"leicht":3528,"##fläche":3529,"Gi":3530,"erreicht":3531,"York":3532,"Karl":3533,"##nungen":3534,"##nu":3535,"##raten":3536,"##ara":3537,"##enze":3538,"##ühren":3539,"Wahr":3540,"erreichen":3541,"##43":3542,"90":3543,"##sichtlich":3544,"geworden":3545,"##steuer":3546,"##get":3547,"ung":3548,"Halb":3549,"Hof":3550,"##hafen":3551,"##ondon":3552,"##edig":3553,"Baum":3554,"Forschung":3555,"##istische":3556,"##ision":3557,"helfen":3558,"Landkreis":3559,"##essor":3560,"persön":3561,"Medien":3562,"Verwaltungs":3563,"Red":3564,"##verl":3565,"Wa":3566,"##Sp":3567,"bekommen":3568,"##fluss":3569,"##verband":3570,"##örd":3571,"Dienstag":3572,"Heimat":3573,"Thomas":3574,"26.":3575,"##gebung":3576,"letzte":3577,"west":3578,"##mbH":3579,"##icken":3580,"Hans":3581,"Bek":3582,"nor":3583,"Paris":3584,"##helm":3585,"##AS":3586,"##ling":3587,"Stelle":3588,"70":3589,"Bezieh":3590,"ursprün":3591,"##Wir":3592,"##gest":3593,"##12":3594,"##ski":3595,"##ane":3596,"regel":3597,"##zus":3598,"Körper":3599,"##Re":3600,"fre":3601,"Untersuch":3602,"machte":3603,"versch":3604,"##tic":3605,"##ain":3606,"Andre":3607,"kaum":3608,"meinen":3609,"##SV":3610,"Gest":3611,"Mor":3612,"##yd":3613,"gesp":3614,"##ali":3615,"1999":3616,"Besitz":3617,"##eichen":3618,"Vereinigten":3619,"sogen":3620,"öffentlichen":3621,"##gebaut":3622,"##6,":3623,"##mitt":3624,"wei":3625,"Tier":3626,"Ehe":3627,"##othe":3628,"Gruppen":3629,"##zeugen":3630,"##öße":3631,"Vorschlag":3632,"kamen":3633,"##83":3634,"##arbeitet":3635,"Pri":3636,"Dok":3637,"Disk":3638,"Kampf":3639,"deine":3640,"##eilen":3641,"beispielsweise":3642,"erhö":3643,"##üter":3644,"meist":3645,"##OM":3646,"##stehen":3647,"##jf":3648,"Tri":3649,"##ns":3650,"rein":3651,"mittler":3652,"Lux":3653,"##eils":3654,"2001":3655,"Struktur":3656,"Trainer":3657,"##park":3658,"Elekt":3659,"Schwar":3660,"##urrent":3661,"Star":3662,"Mädchen":3663,"Telefon":3664,"oben":3665,"Danke":3666,"Rot":3667,"ad":3668,"eher":3669,"##zwischen":3670,"##stru":3671,"2002":3672,"Jose":3673,"##iar":3674,"geboren":3675,"kompl":3676,"Kurz":3677,"##75":3678,"##iegel":3679,"##spieler":3680,"##setzen":3681,"##kret":3682,"##handlungen":3683,"fer":3684,"##haltung":3685,"##prochen":3686,"##örden":3687,"##79":3688,"##ex":3689,"einzelnen":3690,"°":3691,"Inn":3692,"##ategor":3693,"Martin":3694,"##zz":3695,"gegründet":3696,"Bre":3697,"##läss":3698,"Ord":3699,"eingesetzt":3700,"London":3701,"##jährigen":3702,"##ew":3703,"GmbH":3704,"##schung":3705,"Start":3706,"Har":3707,"mm":3708,"##ash":3709,"##lingen":3710,"##ehler":3711,"##ualis":3712,"##auern":3713,"##itionen":3714,"formula":3715,"##abend":3716,"##mand":3717,"internationalen":3718,"gelang":3719,"##ograf":3720,"Bezir":3721,"##heb":3722,"##asen":3723,"##12.":3724,"##andid":3725,"Bruder":3726,"##ienten":3727,"Paul":3728,"gleichen":3729,"Stellung":3730,"stellte":3731,"##istik":3732,"##tionen":3733,"##rifft":3734,"Schauspiel":3735,"arbeitete":3736,"Republik":3737,"##The":3738,"##ösen":3739,"##serv":3740,"Ku":3741,"2,":3742,"##iten":3743,"##iven":3744,"##west":3745,"##press":3746,"Position":3747,"##öpf":3748,"##bi":3749,"weiterhin":3750,"##itzt":3751,"SPD":3752,"##sc":3753,"Mio":3754,"größten":3755,"allgemein":3756,"Beschl":3757,"Foto":3758,"##ammt":3759,"solche":3760,"danach":3761,"##iete":3762,"Typ":3763,"Konz":3764,"Olymp":3765,"##fa":3766,"Reise":3767,"lag":3768,"Zusammenhang":3769,"Anwendung":3770,"##oment":3771,"##ama":3772,"Bür":3773,"Rhein":3774,"##med":3775,"Schweiz":3776,"##rief":3777,"##räsidenten":3778,"Gold":3779,"##rn":3780,"erfolgreich":3781,"Sin":3782,"##iko":3783,"Vergleich":3784,"##wegung":3785,"##igh":3786,"EC":3787,"##35":3788,"##cy":3789,"##tiv":3790,"##besch":3791,"entscheiden":3792,"##iden":3793,"op":3794,"##iegen":3795,"Beim":3796,"##keits":3797,"##spiele":3798,"verbunden":3799,"##bte":3800,"##tik":3801,"##OR":3802,"Prü":3803,"##amar":3804,"See":3805,"Orts":3806,"##aktion":3807,"jün":3808,"Bitte":3809,"##innt":3810,"Ach":3811,"##\"-":3812,"##folger":3813,"Tabe":3814,"gewählt":3815,"##tritt":3816,"##klärung":3817,"##by":3818,"entwickelt":3819,"0,":3820,"##inden":3821,"Aktiv":3822,"Spanien":3823,"Tex":3824,"Gro":3825,"Zentrum":3826,"1980":3827,"Stück":3828,"notwend":3829,"##BI":3830,"Hamburg":3831,"Norden":3832,"Königreich":3833,"unseren":3834,"##roffen":3835,"häufig":3836,"Erz":3837,"##ona":3838,"Lö":3839,"##reten":3840,"Künstler":3841,"vo":3842,"Regen":3843,"##frist":3844,"Schwer":3845,"Dav":3846,"##do":3847,"##ütz":3848,"aut":3849,"bem":3850,"##iums":3851,"##aust":3852,"Produkte":3853,"##kraft":3854,"##tigkeit":3855,"(2)":3856,"befinden":3857,"##anlage":3858,"##eth":3859,"Weltkrieg":3860,"##gu":3861,"ebenso":3862,"##sei":3863,"##7,":3864,"Empf":3865,"##peratur":3866,"##tische":3867,"##ernen":3868,"Arbeiten":3869,"richtig":3870,"kennen":3871,"##ada":3872,"Hause":3873,"Provin":3874,"gelten":3875,"wesent":3876,"##wertung":3877,"derzeit":3878,"##Jährige":3879,"us":3880,"##wind":3881,"##ante":3882,"Weil":3883,"meiner":3884,"Feld":3885,"##sitz":3886,"##äs":3887,"ihres":3888,"zahlreiche":3889,"##ba":3890,"##umm":3891,"gelegen":3892,"186":3893,"begr":3894,"Antw":3895,"Weitere":3896,"Gerichts":3897,"##DR":3898,"##:30":3899,"##sent":3900,"02":3901,"##time":3902,"Licht":3903,"verloren":3904,"Theater":3905,"Feuerwehr":3906,"Deb":3907,"##va":3908,"elekt":3909,"offiz":3910,"eng":3911,"einger":3912,"bald":3913,"hal":3914,"bieten":3915,"Ac":3916,"Hey":3917,"bedeutet":3918,"Brand":3919,"##ängt":3920,"##De":3921,"Akt":3922,"ober":3923,"Verkehrs":3924,"moder":3925,"##bruch":3926,"nachdem":3927,"##eller":3928,"Schön":3929,"gewähr":3930,"kur":3931,"##okal":3932,"sah":3933,"Restaur":3934,"##iziert":3935,"##39":3936,"darunter":3937,"##vier":3938,"Verbrauch":3939,"aufgenommen":3940,"politischen":3941,"Ergebnis":3942,"Gebur":3943,"Gesprä":3944,"Rund":3945,"##IE":3946,"##arte":3947,"##spruch":3948,"##lass":3949,"Wel":3950,"##tur":3951,"##deck":3952,"Lang":3953,"Gäste":3954,"##unsch":3955,"Spiele":3956,"##preis":3957,"##ennung":3958,"##reibung":3959,"Trum":3960,"Folgen":3961,"##handen":3962,"##stät":3963,"##ated":3964,"Verbindung":3965,"##anischen":3966,"Absatz":3967,"##to":3968,"##nd":3969,"##pel":3970,"tim":3971,"##udem":3972,"neuer":3973,"##arbeitung":3974,"##tisch":3975,"Tro":3976,"gekommen":3977,"studierte":3978,"Pfl":3979,"current":3980,"gebracht":3981,"##setzt":3982,"Berufs":3983,"found":3984,"organis":3985,"folgende":3986,"##wald":3987,"eigentlich":3988,"##84":3989,"gepl":3990,"verein":3991,"Schwe":3992,"Verd":3993,"länger":3994,"Rel":3995,"Motor":3996,"##ames":3997,"Sieg":3998,"##TS":3999,"Schrift":4000,"##leiter":4001,"land":4002,"##gehend":4003,"knapp":4004,"Liter":4005,"erster":4006,"Del":4007,"##fan":4008,"##gesellschaft":4009,"##ime":4010,"spielt":4011,"##orten":4012,"entstanden":4013,"Zudem":4014,"erl":4015,"Privat":4016,"hohen":4017,"Auftrag":4018,"##bringen":4019,"##ux":4020,"##älfte":4021,"Wolf":4022,"Besucher":4023,"Doppel":4024,"Imm":4025,"##haben":4026,"Archite":4027,"##nn":4028,"##ekten":4029,"##losen":4030,"minde":4031,"Bal":4032,"gestellt":4033,"ehemaligen":4034,"##andeln":4035,"End":4036,"##spolitik":4037,"##ourn":4038,"##illa":4039,"veröffentlicht":4040,"##kirche":4041,"bedeuten":4042,"currently":4043,"##abl":4044,"außerdem":4045,"ak":4046,"Leiter":4047,"##ffer":4048,"verz":4049,"posit":4050,"alte":4051,"1998":4052,"verbesser":4053,"##ep":4054,"Dis":4055,"res":4056,"##2/":4057,"Sl":4058,"Hor":4059,"hol":4060,"Grie":4061,"##fj":4062,"nimmt":4063,"##will":4064,"zul":4065,"##mitteln":4066,"##elte":4067,"neun":4068,"##legung":4069,"##ograph":4070,"sofort":4071,"Hann":4072,"##durch":4073,"Macht":4074,"Lud":4075,"Garten":4076,"##kräfte":4077,"##ielle":4078,"Schloss":4079,"##gs":4080,"Ziff":4081,"Monate":4082,"##zeiten":4083,"Situation":4084,"##34":4085,"Fischer":4086,"Volk":4087,"mindestens":4088,"##schuld":4089,"##hoben":4090,"Nachbar":4091,"##anger":4092,"##lege":4093,"##ollar":4094,"jede":4095,"Wür":4096,"Süden":4097,"Tagen":4098,"Ton":4099,"##kosten":4100,"server":4101,"##drück":4102,"Stutt":4103,"##over":4104,"Pfarr":4105,"jähr":4106,"nörd":4107,"übern":4108,"##rael":4109,"##zeigt":4110,"##ode":4111,"##esser":4112,"Pa":4113,"Kol":4114,"Punkt":4115,"Aller":4116,"Serv":4117,"Firma":4118,"Aktion":4119,"##vel":4120,"##sammlung":4121,"Dass":4122,"Produkt":4123,"zuletzt":4124,"##Be":4125,"Super":4126,"einzige":4127,"Frankfurt":4128,"Köln":4129,"dritten":4130,"erfolgte":4131,"tats":4132,"lei":4133,"Ball":4134,"vorher":4135,"##halte":4136,"Sprache":4137,"##hältnis":4138,"39":4139,"raus":4140,"spezie":4141,"##tigung":4142,"krit":4143,"##mmen":4144,"Anteil":4145,"##hre":4146,"##organis":4147,"ganzen":4148,"Russland":4149,"##iam":4150,"##Al":4151,"##ool":4152,"Gottes":4153,"##ochen":4154,"1994":4155,"dürfen":4156,"AG":4157,"##ftware":4158,"hei":4159,"anders":4160,"Deutsche":4161,"unver":4162,"Osten":4163,"Bund":4164,"##unn":4165,"##gress":4166,"Georg":4167,"##1/":4168,"Rein":4169,"##rang":4170,"zeig":4171,"hält":4172,"##bil":4173,"##quested":4174,"##77":4175,"##iellen":4176,"##uld":4177,"##bü":4178,"##view":4179,"Material":4180,"##ias":4181,"Kreuz":4182,"Air":4183,"somit":4184,"Forschungs":4185,"Los":4186,"Publik":4187,"##itten":4188,"##nern":4189,"Tat":4190,"##Aus":4191,"requested":4192,"1996":4193,"Cor":4194,"Bilder":4195,"1995":4196,"as":4197,"Mik":4198,"##zustellen":4199,"##88":4200,"##akte":4201,"Wilhelm":4202,"Veröffentlich":4203,"italien":4204,"##bank":4205,"##ftung":4206,"Ihren":4207,"zug":4208,"##zlich":4209,"1992":4210,"mehreren":4211,"Bef":4212,"gerne":4213,"region":4214,"##DE":4215,"Weihn":4216,"##rau":4217,"Main":4218,"Christian":4219,"vorhanden":4220,"##sburg":4221,"Dro":4222,"##riffe":4223,"##zeichen":4224,"##ikt":4225,"##mehr":4226,"##riffen":4227,"Wissenschaft":4228,"Morgen":4229,"##AM":4230,"Bor":4231,"##gi":4232,"Voll":4233,"Engl":4234,"##uchten":4235,"##gliche":4236,"##igin":4237,"##til":4238,"Schon":4239,"##nier":4240,"##vert":4241,"Repl":4242,"Aussch":4243,"##gemeinschaft":4244,"##uc":4245,"Alles":4246,"entstand":4247,"Sonder":4248,"##forderungen":4249,"Verkauf":4250,"Sand":4251,"zog":4252,"##ischof":4253,"##36":4254,"verf":4255,"Salz":4256,"Get":4257,"##schiff":4258,"nord":4259,"glaube":4260,"heutigen":4261,"##gericht":4262,"##icherung":4263,"##fahrer":4264,"Wol":4265,"##orgt":4266,"##zahlen":4267,"la":4268,"##wicklung":4269,"Dank":4270,"##werke":4271,"1997":4272,"tut":4273,"##unternehmen":4274,"Heute":4275,"anzu":4276,"##ley":4277,"##eten":4278,"Bran":4279,"genommen":4280,"Themen":4281,"engl":4282,"funktion":4283,"##ediglich":4284,"Herrn":4285,"Zweiten":4286,"Samm":4287,"jemand":4288,"##gart":4289,"Kontakt":4290,"##üb":4291,"erreichte":4292,"Gemeinschafts":4293,"Hä":4294,"tot":4295,"med":4296,"sprach":4297,"Kloster":4298,"##Ber":4299,"##ld":4300,"##cks":4301,"indem":4302,"forder":4303,"Mensch":4304,"500":4305,"jedem":4306,"##day":4307,"##reib":4308,"##lose":4309,"erf":4310,"Mad":4311,"TV":4312,"Studien":4313,"Noch":4314,"Punkte":4315,"Text":4316,"##ehlen":4317,"##acher":4318,"##ga":4319,"##mee":4320,"amer":4321,"1993":4322,"##han":4323,"Niederl":4324,"gesamten":4325,"hohe":4326,"##fil":4327,"##entral":4328,"russ":4329,"##wurf":4330,"##linien":4331,"anges":4332,"Bildung":4333,"##pflich":4334,"##last":4335,"##gruppen":4336,"jedes":4337,"##za":4338,"##For":4339,"Sek":4340,"1970":4341,"gefähr":4342,"##aff":4343,"komp":4344,"Tal":4345,"Monaten":4346,"##ichtete":4347,"##dest":4348,"Heraus":4349,"Zwe":4350,"##scheinlich":4351,"Viele":4352,"##schine":4353,"##ham":4354,"China":4355,"##11.":4356,"##ölf":4357,"Kauf":4358,"ie":4359,"erklärte":4360,"Terr":4361,"Liebe":4362,"##10.":4363,"sprechen":4364,"Reply":4365,"Chem":4366,"Sicherheits":4367,"übernahm":4368,"Test":4369,"Dazu":4370,"##radition":4371,"##schusses":4372,"Tsch":4373,"##ällt":4374,"Westen":4375,"einst":4376,"This":4377,"Vielleicht":4378,"Initi":4379,"teilweise":4380,"Maß":4381,"mag":4382,"##ügen":4383,"##leitung":4384,"##ata":4385,"fertig":4386,"##9)":4387,"##ors":4388,"##zif":4389,"dun":4390,"Wohnung":4391,"##ines":4392,"##üm":4393,"##glied":4394,"Haushalts":4395,"##nehm":4396,"Hälfte":4397,"darin":4398,"##ßt":4399,"Bot":4400,"Verwaltung":4401,"Zeitpunkt":4402,"##kan":4403,"Mel":4404,"##barkeit":4405,"##ago":4406,"ECU":4407,"##male":4408,"##mittag":4409,"Glück":4410,"##industrie":4411,"##vangel":4412,"31":4413,"guten":4414,"tä":4415,"Ferien":4416,"schwar":4417,"##läuf":4418,"##auber":4419,"##les":4420,"Les":4421,"\",":4422,"Interesse":4423,"zerst":4424,"sozialen":4425,"##mon":4426,"##gebracht":4427,"Hör":4428,"Mos":4429,"vorgesehen":4430,"Voraus":4431,"##asste":4432,"##ordin":4433,"##ET":4434,"##tliche":4435,"gebe":4436,"##wen":4437,"##gangs":4438,"(4":4439,"45":4440,"##künf":4441,"##ki":4442,"genutzt":4443,"##schläge":4444,"wissenschaft":4445,"##geschichte":4446,"185":4447,"leb":4448,"##ießen":4449,"Unternehmens":4450,"36":4451,"men":4452,"##\":":4453,"##UR":4454,"##led":4455,"dra":4456,"Frieden":4457,"Pra":4458,"Veränder":4459,"Zusch":4460,"Denk":4461,"##bie":4462,"##orgung":4463,"##anne":4464,"##cel":4465,"##ni":4466,"##alle":4467,"gemäß":4468,"Förderung":4469,"##emat":4470,"Stahl":4471,"älter":4472,"##roh":4473,"enthalten":4474,"##zehn":4475,"Erk":4476,"Zugang":4477,"##wechsel":4478,"##8/":4479,"erwähn":4480,"##Ab":4481,"180":4482,"Basis":4483,"##laufen":4484,"Hallo":4485,"##ook":4486,"##nas":4487,"Oper":4488,"französischen":4489,"##seiten":4490,"erfü":4491,"Kindern":4492,"Vertreter":4493,"Abkommen":4494,"Ludwig":4495,"unterstützt":4496,"dagegen":4497,"##östlich":4498,"##unkten":4499,"##fälle":4500,"schaffen":4501,"##9,":4502,"setzte":4503,"##fallen":4504,"Teilnehmer":4505,"Maria":4506,"##gemeinde":4507,"##ey":4508,"Fel":4509,"Keine":4510,"##site":4511,"Zeu":4512,"##reite":4513,"##linge":4514,"Ul":4515,"Berliner":4516,"Fernseh":4517,"##verwalt":4518,"passiert":4519,"Regionen":4520,"verlie":4521,"Qualität":4522,"##ox":4523,"junge":4524,"Col":4525,"##Mar":4526,"erhält":4527,"Zoll":4528,"geschlossen":4529,"##sprache":4530,"##ournal":4531,"Rich":4532,"wechselte":4533,"##aupts":4534,"könne":4535,"##schau":4536,"Ris":4537,"Verantwort":4538,"##schei":4539,"vorbei":4540,"##riere":4541,"tragen":4542,"warum":4543,"Ker":4544,"Bull":4545,"##ivid":4546,"genug":4547,"Sache":4548,"##erweise":4549,"##denk":4550,"grund":4551,"großer":4552,"Laut":4553,"Dach":4554,"erziel":4555,"Wider":4556,"inform":4557,"Verbesser":4558,"Abst":4559,"Kern":4560,"Bezug":4561,"bestimmt":4562,"Ruhe":4563,"##ürf":4564,"##spart":4565,"##rochen":4566,"##immungen":4567,"starb":4568,"verlassen":4569,"Det":4570,"##Mit":4571,"Schweizer":4572,"Wal":4573,"erinner":4574,"tradition":4575,"Besonder":4576,"##iens":4577,"##kennen":4578,"Aufgabe":4579,"Pre":4580,"##wj":4581,"##athol":4582,"##ämlich":4583,"##ikal":4584,"nationalen":4585,"Teile":4586,"##jen":4587,"##rate":4588,"##renz":4589,"##rimin":4590,"künf":4591,"Blut":4592,"##lig":4593,"Linie":4594,"##gefähr":4595,"Unfall":4596,"Album":4597,"Exper":4598,"##fert":4599,"##wegs":4600,"##zul":4601,"##flug":4602,"errichtet":4603,"brauchen":4604,"Fen":4605,"größte":4606,"verk":4607,"##gegeben":4608,"##sprach":4609,"Sir":4610,"##gessen":4611,"Arten":4612,"Robert":4613,"##band":4614,"##ligen":4615,"Provinz":4616,"folgender":4617,"##33":4618,"##EM":4619,"Gericht":4620,"Strom":4621,"University":4622,"##tent":4623,"##deckt":4624,"##kap":4625,"##volution":4626,"Mach":4627,"Grundlage":4628,"anderer":4629,"staat":4630,"Professor":4631,"eg":4632,"##ward":4633,"Graf":4634,"Ebene":4635,"benö":4636,"##riebe":4637,"##zy":4638,"selten":4639,"enthält":4640,"##name":4641,"##mut":4642,"1991":4643,"##erner":4644,"Hen":4645,"setzt":4646,"präsen":4647,"hinzu":4648,"##leisch":4649,"vö":4650,"##ikanische":4651,"Verwendung":4652,"Museum":4653,"Sicht":4654,"Sach":4655,"##nungs":4656,"##äger":4657,"meinem":4658,"##ton":4659,"produz":4660,"dadurch":4661,"##üssel":4662,"##ktoren":4663,"Japan":4664,"##stellten":4665,"##sätze":4666,"##illen":4667,"Prem":4668,"Heinrich":4669,"par":4670,"##ague":4671,"Sim":4672,"##programm":4673,"##trem":4674,"Metho":4675,"überhaupt":4676,"Leip":4677,"pol":4678,"Trotz":4679,"##wirkungen":4680,"Autor":4681,"fal":4682,"Kant":4683,"gleichzeitig":4684,"verh":4685,"##maßnahmen":4686,"##zwei":4687,"##pd":4688,"Angst":4689,"##lands":4690,"Prozess":4691,"##rab":4692,"ph":4693,"politische":4694,"Milliar":4695,"Schlaf":4696,"##ologischen":4697,"##rika":4698,"##lauben":4699,"Maschinen":4700,"Comm":4701,"##ierenden":4702,"Pil":4703,"##ary":4704,"Kriegs":4705,"pm":4706,"##ros":4707,"rich":4708,"##46":4709,"Landwirtschaft":4710,"##ierter":4711,"##ickt":4712,"ehr":4713,"##nee":4714,"lau":4715,"mon":4716,"##auch":4717,"##fühl":4718,"##bildungs":4719,"Danach":4720,"Beteil":4721,"Trump":4722,"Insgesamt":4723,"##ena":4724,"##82":4725,"##äne":4726,"times":4727,"fahren":4728,"ste":4729,"Hal":4730,"schwier":4731,"##altungen":4732,"Hoff":4733,"##out":4734,"##gramme":4735,"##halle":4736,"Standard":4737,"##andlung":4738,"Kre":4739,"##pol":4740,"1945":4741,"Version":4742,"##ces":4743,"Flughafen":4744,"gesamte":4745,"##ährung":4746,"Meine":4747,"günst":4748,"##igungs":4749,"wichtige":4750,"Kaiser":4751,"Ihrer":4752,"Ordnung":4753,"gemeinsamen":4754,"##LL":4755,"belie":4756,"Idee":4757,"versucht":4758,"##achts":4759,"bestimmten":4760,"Prot":4761,"beein":4762,"##igur":4763,"fiel":4764,"Essen":4765,"Instrum":4766,"##ringer":4767,"Moment":4768,"nämlich":4769,"Video":4770,"Wachst":4771,"Allerdings":4772,"erschien":4773,"rechts":4774,"##Die":4775,"##AP":4776,"Flücht":4777,"##ico":4778,"Öffent":4779,"1989":4780,"neues":4781,"prakti":4782,"##wissenschaft":4783,"Lager":4784,"##stellte":4785,"##gut":4786,"Lösung":4787,"##istr":4788,"##fragen":4789,"treffen":4790,"##hör":4791,"##ita":4792,"Kategor":4793,"beschäf":4794,"Ehren":4795,"{":4796,"##illas":4797,"##ng":4798,"##örde":4799,"##betrieb":4800,"##/07":4801,"##ival":4802,"kannst":4803,"Gemeinden":4804,"Glas":4805,"Ganz":4806,"umfassen":4807,"Bereits":4808,"Himm":4809,"##bol":4810,"you":4811,"##dition":4812,"Angebot":4813,"auszu":4814,"Stuttgart":4815,"##atoren":4816,"Bö":4817,"lediglich":4818,"geführt":4819,"##länder":4820,"Bab":4821,"Ther":4822,"schrieb":4823,"Begriff":4824,"Bedingungen":4825,"red":4826,"Schlag":4827,"Klima":4828,"##iente":4829,"geeig":4830,"##nr":4831,"Opfer":4832,"Quelle":4833,"Vorstand":4834,"spricht":4835,"##zeugnisse":4836,"hoff":4837,"##alyse":4838,"tran":4839,"Abschluss":4840,"##klus":4841,"##ücken":4842,"##AG":4843,"tö":4844,"Militär":4845,"jungen":4846,"300":4847,"##rechte":4848,"##Kon":4849,"##78":4850,"CDU":4851,"unmittel":4852,"(5":4853,"Modell":4854,"##ständigen":4855,"Handel":4856,"Bahnhof":4857,"Miss":4858,"Gesundheits":4859,"##dam":4860,"Gemeinsam":4861,"prof":4862,"##.:":4863,"Vertra":4864,"##SU":4865,"33":4866,"scheint":4867,"##indest":4868,"Wagen":4869,"Jur":4870,"durchgeführt":4871,"Tu":4872,"Aufgaben":4873,"##rim":4874,"##ents":4875,"David":4876,"ged":4877,"Institut":4878,"Organisation":4879,"wenige":4880,"##üge":4881,"Verf":4882,"##tive":4883,"##rechts":4884,"weltweit":4885,"Mö":4886,"##ington":4887,"beruf":4888,"##4/":4889,"##uster":4890,"wider":4891,"##erseits":4892,"##omo":4893,"ko":4894,"Stellen":4895,"##pflicht":4896,"##xis":4897,"Zeitung":4898,"##tags":4899,"bestimmte":4900,"##anlagen":4901,"##wach":4902,"absolv":4903,"Herren":4904,"damal":4905,"Bil":4906,"##ffe":4907,"Schluss":4908,"##etzten":4909,"##uel":4910,"Karriere":4911,"beginnt":4912,"##recher":4913,"##aub":4914,"Top":4915,"Abgeord":4916,"##ows":4917,"Verhandlungen":4918,"Online":4919,"Serie":4920,"##vention":4921,"Tats":4922,"setzen":4923,"Presse":4924,"Preise":4925,"##–19":4926,"##tert":4927,"##orte":4928,"##mannschaft":4929,"##81":4930,"##pft":4931,"lok":4932,"Behörden":4933,"Är":4934,"##lan":4935,"##ause":4936,"##ener":4937,"beleg":4938,"übrigen":4939,"Nachrichten":4940,"##Vor":4941,"österreich":4942,"verantwort":4943,"##ala":4944,"##fäl":4945,"reich":4946,"Portug":4947,"Mess":4948,"##73":4949,"Arbeitspl":4950,"Mat":4951,"mussten":4952,"3,":4953,"Dinge":4954,"Änderung":4955,"Fe":4956,"##hu":4957,"##ktive":4958,"zunehmen":4959,"Personal":4960,"bringt":4961,"Train":4962,"##mt":4963,"nutzen":4964,"Fluss":4965,"gener":4966,"ermöglich":4967,"##haber":4968,"Gre":4969,"Leistung":4970,"##lock":4971,"##ymnas":4972,"schaf":4973,"Jes":4974,"##teilen":4975,"##gelt":4976,"##Stand":4977,"##zun":4978,"Literatur":4979,"Leit":4980,"erzählt":4981,"Bildungs":4982,"Geist":4983,"##gänger":4984,"##lag":4985,"äußer":4986,"fühl":4987,"##ehrte":4988,"##pfel":4989,"reden":4990,"nä":4991,"##werbe":4992,"##48":4993,"##kampf":4994,"##way":4995,"rei":4996,"##formen":4997,"exist":4998,"##4-":4999,"Bestand":5000,"bestä":5001,"##assungs":5002,"##stoffe":5003,"##bli":5004,"##lieben":5005,"##reiber":5006,"##garten":5007,"Roman":5008,"##alog":5009,"folgte":5010,"Strecke":5011,"wichtigsten":5012,"hören":5013,"##sprung":5014,"he":5015,"betre":5016,"Griechen":5017,"##AF":5018,"German":5019,"Wetter":5020,"gebaut":5021,"Pe":5022,"1960":5023,"##ession":5024,"Sonnen":5025,"##geschlagen":5026,"erheb":5027,"brachte":5028,"Spielen":5029,"Camp":5030,"Pet":5031,"##chmal":5032,"unters":5033,"Milliarden":5034,"Ap":5035,"##hem":5036,"##anwalt":5037,"Liga":5038,"inst":5039,"##Reg":5040,"As":5041,"Fahrzeug":5042,"DER":5043,"##ola":5044,"Schaf":5045,"##1-":5046,"##ters":5047,"Antwort":5048,"Schritt":5049,"##ieder":5050,"##finden":5051,"##weile":5052,"##spielen":5053,"Arbeitnehmer":5054,"Kontrolle":5055,"##rep":5056,"Studen":5057,"##5/":5058,"berichtet":5059,"Einige":5060,"##ags":5061,"##redit":5062,"Antrag":5063,"##ologische":5064,"##kei":5065,"Computer":5066,"Tätigkeit":5067,"150":5068,"verletzt":5069,"normal":5070,"Fläche":5071,"##une":5072,"welches":5073,"##zeugt":5074,"zwölf":5075,"Auss":5076,"##bus":5077,"##vis":5078,"##ral":5079,"##troffen":5080,"Deshalb":5081,"Gründung":5082,"folgt":5083,"Information":5084,"##ICH":5085,"ausger":5086,"entgegen":5087,"##äss":5088,"##sprü":5089,"##geg":5090,"Einführung":5091,"##CD":5092,"##ries":5093,"Sinne":5094,"mi":5095,"SV":5096,"##mens":5097,"##Ich":5098,"Fehler":5099,"##cn":5100,"bilden":5101,"verschw":5102,"völlig":5103,"##Te":5104,"##kor":5105,"##echnet":5106,"Ster":5107,"Möglichkeiten":5108,"##hy":5109,"früh":5110,"Schließ":5111,"##cr":5112,"City":5113,"betroffen":5114,"Okay":5115,"Darüber":5116,"anschließend":5117,"Rang":5118,"erfahren":5119,"No":5120,"Regierungs":5121,"<":5122,"##steil":5123,"(0)":5124,"##lern":5125,"Stamm":5126,"##ads":5127,"erd":5128,"##ano":5129,"##):":5130,"Liefer":5131,"##kra":5132,"inzwischen":5133,"2019":5134,"Zul":5135,"herr":5136,"dei":5137,"klass":5138,"Lehrer":5139,"Wechsel":5140,"Umgebung":5141,"Vereins":5142,"suchen":5143,"Stimm":5144,"max":5145,"Verm":5146,"##ms":5147,"##ährt":5148,"##ützt":5149,"wün":5150,"##3/":5151,"##fähigkeit":5152,"darum":5153,"Trans":5154,"$":5155,"WM":5156,"keiner":5157,"##ählte":5158,"Beitrag":5159,"gewinnen":5160,"##fast":5161,"##merksam":5162,"arbei":5163,"mittel":5164,"Mw":5165,"IS":5166,"Hü":5167,"are":5168,"##leb":5169,"arbeitet":5170,"##obilien":5171,"Stock":5172,"Verteid":5173,"##TE":5174,"ständ":5175,"unabhäng":5176,"Software":5177,"##ratet":5178,"##win":5179,"Waffen":5180,"##ruf":5181,"Offen":5182,"##üsseld":5183,"Log":5184,"Club":5185,"Tiere":5186,"Sold":5187,"Dom":5188,"Job":5189,"tatsächlich":5190,"##olz":5191,"##ju":5192,"##........":5193,"##stände":5194,"Mc":5195,"##hor":5196,"Eigent":5197,"Viz":5198,"##ios":5199,"##regierung":5200,"##ielten":5201,"©":5202,"Führung":5203,"läuft":5204,"verfüg":5205,"##ical":5206,"##olo":5207,"Geburt":5208,"##alisierung":5209,"##via":5210,"Johannes":5211,"##enne":5212,"Firmen":5213,"##wjet":5214,"##äume":5215,"##armon":5216,"Oder":5217,"erfolgt":5218,"1988":5219,"Sat":5220,"##vorschriften":5221,"##steh":5222,"##Ein":5223,"(200":5224,"willst":5225,"Herbst":5226,"##ini":5227,"Matt":5228,"Szen":5229,"Streit":5230,"##bu":5231,"Sing":5232,"Com":5233,"##gemeine":5234,"Pflanzen":5235,"##alz":5236,"Schweden":5237,"getan":5238,"##tp":5239,"Kritik":5240,"##film":5241,"trägt":5242,"##71":5243,"Just":5244,"Sym":5245,"##wart":5246,"unserem":5247,"##abrik":5248,"##irm":5249,"lebt":5250,"beste":5251,"Tar":5252,"##ect":5253,"##bra":5254,"##uropa":5255,"III":5256,"Stad":5257,"##74":5258,"unterstützen":5259,"Chef":5260,"Fällen":5261,"Polen":5262,"Klasse":5263,"Rie":5264,"##ivil":5265,"##reitet":5266,"Zeitraum":5267,"##bedingungen":5268,"##wärts":5269,"##gül":5270,"Anlage":5271,"##ämpfen":5272,"##olge":5273,"erwartet":5274,"Gemeinschaften":5275,"vertreten":5276,"##äten":5277,"Kamer":5278,"##wiegend":5279,"##urg":5280,"Größe":5281,"Grenze":5282,"voraus":5283,"##eiert":5284,"##asil":5285,"##Or":5286,"Zus":5287,"jeweiligen":5288,"##osoph":5289,"##mund":5290,"Nutzung":5291,"##üch":5292,"##ademie":5293,"beträgt":5294,"1987":5295,"##ässer":5296,"Werke":5297,"##laubt":5298,"##ehrt":5299,"##bezir":5300,"##99":5301,"Ott":5302,"Länge":5303,"##gelassen":5304,"##igit":5305,"##örm":5306,"Syn":5307,"##wn":5308,"Einen":5309,"##emin":5310,"Nummer":5311,"##rats":5312,"bestand":5313,"Beziehungen":5314,"##achtet":5315,"##dien":5316,"Schulen":5317,"##ahnen":5318,"Bu":5319,"Dah":5320,"##its":5321,"zentr":5322,"Entwicklungs":5323,"kommenden":5324,"eid":5325,"##sein":5326,"Informations":5327,"leich":5328,"nein":5329,"Diskuss":5330,"IN":5331,"drin":5332,"##denken":5333,"Meinung":5334,"##zur":5335,"##rennen":5336,"bas":5337,"##dy":5338,"##werte":5339,"##hte":5340,"##klasse":5341,"##Welt":5342,"##II":5343,"##blatt":5344,"Alexander":5345,"##geld":5346,"gewonnen":5347,"##setzungen":5348,"Anton":5349,"##41":5350,"gemeinsame":5351,"verfügt":5352,"##eis":5353,"##uern":5354,"##ördert":5355,"gere":5356,"##rechend":5357,"genannten":5358,"ww":5359,"beteiligt":5360,"##pu":5361,"##Vert":5362,"Erde":5363,"##wander":5364,"Düsseld":5365,"##brit":5366,"Pu":5367,"Bereichen":5368,"##spar":5369,"zahlreichen":5370,"Pop":5371,"##rige":5372,"Kra":5373,"Unsere":5374,"abzu":5375,"Wh":5376,"##ständige":5377,"##ssel":5378,"fe":5379,"Sied":5380,"Beam":5381,"##tell":5382,"##stud":5383,"##itzer":5384,"##FF":5385,"dpa":5386,"##ischem":5387,"Monat":5388,"##ohlen":5389,"verstär":5390,"1986":5391,"Armee":5392,"##tierten":5393,"Nachfolger":5394,"##verwaltung":5395,"mil":5396,"##mittelt":5397,"Israel":5398,"##AC":5399,"##denburg":5400,"min":5401,"##punkte":5402,"uz":5403,"Bew":5404,"##üst":5405,"ehemalige":5406,"Leitung":5407,"geschaffen":5408,"Ernst":5409,"Auswahl":5410,"##häuser":5411,"Qualif":5412,"from":5413,"##ring":5414,"Chance":5415,"##2;":5416,"##ücksich":5417,"beob":5418,"0.":5419,"Zahlen":5420,"braucht":5421,"Menge":5422,"Richter":5423,"##lam":5424,"Ziele":5425,"besondere":5426,"Fax":5427,"ziehen":5428,"kleiner":5429,"dachte":5430,"Website":5431,"Kann":5432,"Politiker":5433,"##wohnern":5434,"Bud":5435,"##eck":5436,"##flächen":5437,"Betriebs":5438,"##95":5439,"##bad":5440,"##akt":5441,"##ones":5442,"Interessen":5443,"##ühm":5444,"defin":5445,"www":5446,"##Kl":5447,"Bach":5448,"Ep":5449,"Anschluss":5450,"Pan":5451,"Home":5452,"##rachten":5453,"Journal":5454,"Nik":5455,"##hebung":5456,"Fenster":5457,"Gas":5458,"obwohl":5459,"1985":5460,"nö":5461,"##mat":5462,"verpflich":5463,"Pfer":5464,"entsprechend":5465,"rde":5466,"##maß":5467,"##oder":5468,"Kab":5469,"with":5470,"##endete":5471,"Mobil":5472,"Verbesserung":5473,"Dän":5474,"Auswirkungen":5475,"umfasst":5476,"Zun":5477,"##rieges":5478,"Hast":5479,"Anti":5480,"##ministerium":5481,"##itar":5482,"##indungen":5483,"##har":5484,"##index":5485,"##ünen":5486,"Rechte":5487,"My":5488,"##meisterschaft":5489,"##züglich":5490,"zeigte":5491,"##bericht":5492,"##ude":5493,"##hs":5494,"Dollar":5495,"Leistungen":5496,"##ildet":5497,"##troll":5498,"Tim":5499,"1950":5500,"##65":5501,"Service":5502,"Win":5503,"Mir":5504,"nächste":5505,"typ":5506,"integr":5507,"Wander":5508,"Freunde":5509,"Andreas":5510,"Leipzig":5511,"links":5512,"##oto":5513,"ausgestat":5514,"32":5515,"Kein":5516,"Dokument":5517,"Lab":5518,"morgen":5519,"##Le":5520,"langen":5521,"hil":5522,"##ierende":5523,"##nam":5524,"##3-":5525,"##/200":5526,"erb":5527,"Berat":5528,"Soll":5529,"##ants":5530,"##gebäude":5531,"ied":5532,"Aufent":5533,"##bliothe":5534,"ursprünglich":5535,"Cap":5536,"Temperatur":5537,"mel":5538,"Dauer":5539,"##ular":5540,"Fraktion":5541,"fanden":5542,"internationale":5543,"##Mail":5544,"##oo":5545,"ok":5546,"Beschäftigung":5547,"##anen":5548,"Durchführung":5549,"##zunehmen":5550,"Stil":5551,"##tegie":5552,"##herr":5553,"##öder":5554,"Arbeiter":5555,"##ED":5556,"stärker":5557,"##IP":5558,"##ds":5559,"##bew":5560,"##72":5561,"##dass":5562,"##OP":5563,"##ualisiert":5564,"vergleich":5565,"##uz":5566,"Königs":5567,"Bauern":5568,"Hum":5569,"##ancen":5570,"##ics":5571,"Bist":5572,"##iat":5573,"MwSt":5574,"erwähnt":5575,"##igungen":5576,"unten":5577,"Dreh":5578,"Ausstellung":5579,"Zeiten":5580,"##rick":5581,"Kla":5582,"Verband":5583,"##riech":5584,"angeboten":5585,"##ient":5586,"na":5587,"Abs":5588,"müsse":5589,"ruh":5590,"Projekte":5591,"edr":5592,"stammen":5593,"Krankenhaus":5594,"##ya":5595,"##leistung":5596,"(3)":5597,"Vorsitzender":5598,"##würd":5599,"##frau":5600,"do":5601,"view":5602,"##ayer":5603,"##dent":5604,"Rett":5605,"##finale":5606,"Satz":5607,"Jung":5608,"Krank":5609,"##britann":5610,"bekannte":5611,"fallen":5612,"ta":5613,"Bem":5614,"##mögen":5615,"Städte":5616,"betreffen":5617,"##kretär":5618,"##able":5619,"##ownlo":5620,"##ally":5621,"##ente":5622,"##IG":5623,"Studium":5624,"ag":5625,"Grenz":5626,"##meld":5627,"Gefahr":5628,"Rum":5629,"leid":5630,"Runde":5631,"Verst":5632,"Haft":5633,"Siehe":5634,"aufzu":5635,"Viertel":5636,"hielt":5637,"Kons":5638,"##selben":5639,"Geg":5640,"##istisch":5641,"jüng":5642,"Integr":5643,"Kollegen":5644,"##OS":5645,"erweiter":5646,"Autob":5647,"Flor":5648,"stammt":5649,"Tisch":5650,"##verständ":5651,"##=\"":5652,"##ött":5653,"##chester":5654,"edi":5655,"##amin":5656,"überra":5657,"##führen":5658,"Schwester":5659,"##holt":5660,"gezeigt":5661,"Bezeichnung":5662,"Himmel":5663,"##ühle":5664,"Präsidenten":5665,"zer":5666,"Gewalt":5667,"##val":5668,"Brief":5669,"##önen":5670,"einzu":5671,"Charl":5672,"Stunde":5673,"landwirtschaft":5674,"##windigkeit":5675,"Zeichen":5676,"entstehen":5677,"##ürk":5678,"League":5679,"geplant":5680,"Hafen":5681,"##aun":5682,"Aufgrund":5683,"##edia":5684,"Immobilien":5685,"abgeschlossen":5686,"##ders":5687,"##44":5688,"Dial":5689,"disk":5690,"##üten":5691,"zumindest":5692,"relativ":5693,"##strecke":5694,"Suche":5695,"verhei":5696,"Ag":5697,"eröffnet":5698,"Transport":5699,"besuchte":5700,"Bade":5701,"Inner":5702,"Verhalten":5703,"verstehen":5704,"Luxem":5705,"DDR":5706,"##bn":5707,"Vom":5708,"##abt":5709,"Leg":5710,"Gespräch":5711,"##ited":5712,"ans":5713,"England":5714,"4,":5715,"##aters":5716,"gra":5717,"##ike":5718,"##gewöhn":5719,"Gesundheit":5720,"bein":5721,"##akfast":5722,"##leitet":5723,"Sachsen":5724,"##:15":5725,"##schte":5726,"sorg":5727,"Rob":5728,"außerhalb":5729,"Müller":5730,"Zuge":5731,"##enntnis":5732,"##macht":5733,"##leg":5734,"Bett":5735,"##erei":5736,"Rock":5737,"Hund":5738,"berücksich":5739,"Spezial":5740,"Einfluss":5741,"##vertrag":5742,"Patienten":5743,"zweit":5744,"Rand":5745,"Fac":5746,"Schä":5747,"solchen":5748,"größer":5749,"##Che":5750,"##dessen":5751,"denke":5752,"Ros":5753,"##fried":5754,"##ländern":5755,"##ric":5756,"möchten":5757,"##dn":5758,"britischen":5759,"niemand":5760,"Demokrat":5761,"erkennen":5762,"##gelöst":5763,"##tain":5764,"Ihrem":5765,"##ble":5766,"Wild":5767,"Sänger":5768,"##iefer":5769,"Var":5770,"##gas":5771,"##31":5772,"##reuen":5773,"##ij":5774,"Verbraucher":5775,"(„":5776,"ergän":5777,"wollten":5778,"##olden":5779,"##aille":5780,"Fisch":5781,"##/2016":5782,"Et":5783,"ausschließlich":5784,"##uff":5785,"Kooper":5786,"William":5787,"regelmäßig":5788,"##eta":5789,"##amarillas":5790,"##orie":5791,"##2018":5792,"Philipp":5793,"Chor":5794,"##alition":5795,"##irn":5796,"##dpa":5797,"##oe":5798,"##bauen":5799,"Kandid":5800,"bekomm":5801,"frühen":5802,"unmittelbar":5803,"##anische":5804,"bislang":5805,"##chner":5806,"Hu":5807,"Technik":5808,"##emark":5809,"notwendig":5810,"Türkei":5811,"##lichkeiten":5812,"Tradition":5813,"Angel":5814,"##otte":5815,"Bill":5816,"Obwohl":5817,"##künd":5818,"perfe":5819,"Reform":5820,"##osen":5821,"wahrscheinlich":5822,"Daniel":5823,"new":5824,"##ace":5825,"Krä":5826,"wunder":5827,"##mark":5828,"getroffen":5829,"##üssen":5830,"400":5831,"##westen":5832,"Bon":5833,"Weihnachts":5834,"##räume":5835,"##affel":5836,"verab":5837,"rück":5838,"##32":5839,"kultur":5840,"wus":5841,"Griechenland":5842,"Gründen":5843,"fällt":5844,"Histor":5845,"Inhalt":5846,"##tu":5847,"erforderlich":5848,"selben":5849,"##uhl":5850,"ermöglicht":5851,"##itution":5852,"verkauft":5853,"Gelegen":5854,"verantwortlich":5855,"now":5856,"##weder":5857,"##nes":5858,"##ience":5859,"Gesicht":5860,"Erfahrung":5861,"Ausgaben":5862,"##adrat":5863,"Nahr":5864,"##edes":5865,"1984":5866,"##lebt":5867,"##Pl":5868,"beginnen":5869,"##plätze":5870,"##bis":5871,"##cu":5872,"Charakter":5873,"##gewiesen":5874,"weiterer":5875,"##fordert":5876,"##gelbe":5877,"Stefan":5878,"anderes":5879,"Schn":5880,"Benutz":5881,"bildet":5882,"##zeichnete":5883,"##republik":5884,"##alifor":5885,"Werte":5886,"##kohol":5887,"Publikum":5888,"##angeb":5889,"warten":5890,"##frastruktur":5891,"##ave":5892,"##ckey":5893,"##SG":5894,"mensch":5895,"Can":5896,"##auftrag":5897,"Alten":5898,"##:10":5899,"ud":5900,"Wegen":5901,"angenommen":5902,"Agr":5903,"##schm":5904,"su":5905,"beschäftigt":5906,"glauben":5907,"wert":5908,"##igar":5909,"Vis":5910,"Jer":5911,"##cc":5912,"Hannover":5913,"Spaß":5914,"##auptsächlich":5915,"entspricht":5916,"(6":5917,"##förm":5918,"Vorber":5919,"Stimmen":5920,"Minute":5921,"##EU":5922,"Silber":5923,"Kron":5924,"zufolge":5925,"##eisen":5926,"Hintergrund":5927,"wor":5928,"dürfte":5929,"##una":5930,"##union":5931,"##aliforn":5932,"##7/":5933,"##Gr":5934,"Count":5935,"Natürlich":5936,"##amb":5937,"##ih":5938,"##elten":5939,"##sätz":5940,"##anzler":5941,"sogenannten":5942,"Allgemein":5943,"besitzt":5944,"französische":5945,"wenigen":5946,"55":5947,"34":5948,"versuchen":5949,"##handel":5950,"##famil":5951,"##linik":5952,"musst":5953,"Großbritann":5954,"allgemeinen":5955,"##/08":5956,"Fahrer":5957,"##iveau":5958,"Eisenbahn":5959,"Verbr":5960,"Urs":5961,"Fortsch":5962,"Bewegung":5963,"##bür":5964,"Rennen":5965,"##reig":5966,"Psych":5967,"##spor":5968,"##ynam":5969,"##musik":5970,"entlang":5971,"Wiener":5972,"##ehmer":5973,"##iginal":5974,"##tes":5975,"##isierte":5976,"vergessen":5977,"##iets":5978,"##vorsitzen":5979,"Belgien":5980,"##agd":5981,"Vergangen":5982,"übernommen":5983,"##open":5984,"wiederum":5985,"Fein":5986,"()":5987,"Brit":5988,"UND":5989,"welcher":5990,"letzt":5991,"Saint":5992,"##gern":5993,"Konzert":5994,"##mu":5995,"Wunsch":5996,"##euten":5997,"##far":5998,"##8-":5999,"Jack":6000,"Wohl":6001,"##beck":6002,"##Stra":6003,"65":6004,"heim":6005,"maxim":6006,"lesen":6007,"Verhältnis":6008,"entwickelte":6009,"geschrieben":6010,"Schlacht":6011,"##volle":6012,"Innov":6013,"##Land":6014,"##ness":6015,"gern":6016,"##ams":6017,"##üh":6018,"##leit":6019,"weder":6020,"Fünf":6021,"soziale":6022,"Standort":6023,"röm":6024,"Frem":6025,"##losigkeit":6026,"##lager":6027,"Tom":6028,"##1⁄":6029,"Komment":6030,"Dist":6031,"Kaffe":6032,"Mig":6033,"##pfen":6034,"##zut":6035,"##fts":6036,"Erweiter":6037,"Paar":6038,"##endes":6039,"Ven":6040,"##splan":6041,"##emente":6042,"1983":6043,"Zür":6044,"uner":6045,"gehe":6046,"##IC":6047,"##Ges":6048,"größere":6049,"Hauptstadt":6050,"##ehnt":6051,"Schaden":6052,"Daher":6053,"##netz":6054,"Wen":6055,"##TER":6056,"##temberg":6057,"Han":6058,"Design":6059,"Ersten":6060,"Sprach":6061,"##runde":6062,"##“)":6063,"Straf":6064,"##OL":6065,"##insel":6066,"##liegenden":6067,"Zuf":6068,"Champ":6069,"Medizin":6070,"Bla":6071,"##sprogramm":6072,"##Sie":6073,"kathol":6074,"##äst":6075,"Brun":6076,"Hart":6077,"##entwicklung":6078,"##hilfen":6079,"##ida":6080,"##üste":6081,"Einfuhr":6082,"##6/":6083,"##zern":6084,"##änglich":6085,"europäische":6086,"##cs":6087,"##ttemberg":6088,"##onte":6089,"tr":6090,"Herstellung":6091,"Ke":6092,"##orfer":6093,"Richard":6094,"entschieden":6095,"Rede":6096,"langsam":6097,"gehalten":6098,"##bürger":6099,"##tierung":6100,"##2015":6101,"Studenten":6102,"Stellungnahme":6103,"##&#22":6104,"Aktivitäten":6105,"Ermitt":6106,"Leistungs":6107,"Carl":6108,"Gegensatz":6109,"Konzept":6110,"1979":6111,"Sinn":6112,"##West":6113,"Lou":6114,"Detail":6115,"veröffentlichte":6116,"##wal":6117,"##2010":6118,"Bundest":6119,"##mi":6120,"##rägen":6121,"Mont":6122,"##SCH":6123,"SP":6124,"Scheiß":6125,"Ç":6126,"aktuellen":6127,"wirst":6128,"Grad":6129,"Tabelle":6130,"Div":6131,"Geschäft":6132,"##versammlung":6133,"Mass":6134,"Haben":6135,"##back":6136,"##ösungen":6137,"ma":6138,"##gänge":6139,"Haushalt":6140,"Umsetzung":6141,"##möglichkeiten":6142,"Kenn":6143,"##lö":6144,"##fn":6145,"Neue":6146,"Schwier":6147,"##fred":6148,"##ikanischer":6149,"gingen":6150,"##07.":6151,"näher":6152,"Mehrheit":6153,"##hop":6154,"Anfrage":6155,"##LAN":6156,"Stoff":6157,"Ba":6158,"Wall":6159,"Sä":6160,"unterwegs":6161,"##strahl":6162,"Konfl":6163,"ausgezeichnet":6164,"ha":6165,"dahin":6166,"Direktor":6167,"##etr":6168,"##mlich":6169,"##städ":6170,"##http":6171,"Grenzen":6172,"##möglichen":6173,"vertra":6174,"##okoll":6175,"Öl":6176,"Zer":6177,"##einkommen":6178,"##änn":6179,"stets":6180,"konzentr":6181,"##pack":6182,"##dient":6183,"##mor":6184,"Bühne":6185,"##ws":6186,"##legten":6187,"##08.":6188,"##stattung":6189,"##technik":6190,"lauf":6191,"Vorjahr":6192,"Mac":6193,"Erinner":6194,"##kord":6195,"Kategorie":6196,"##iment":6197,"ID":6198,"con":6199,"entsprechenden":6200,"Wirkung":6201,"Erfahrungen":6202,"75":6203,"##Dat":6204,"##geschoss":6205,"Wolfgang":6206,"begonnen":6207,"Ereig":6208,"vollständig":6209,"Beide":6210,"Agen":6211,"Öffentlichkeit":6212,"Karte":6213,"Lü":6214,"Truppen":6215,"Stär":6216,"Klei":6217,"##allel":6218,"Düsseldorf":6219,"##anc":6220,"no":6221,"Drit":6222,"##ktiven":6223,"##sprechen":6224,"##1⁄4":6225,"##forschung":6226,"##kau":6227,"(199":6228,"Drogen":6229,"liebe":6230,"wären":6231,"Rud":6232,"Metern":6233,"1982":6234,"##lösung":6235,"##69":6236,"Regional":6237,"##stechn":6238,"##Fl":6239,"##ney":6240,"Klaus":6241,"##titel":6242,"individ":6243,"##irol":6244,"##schließen":6245,"Parteien":6246,"Urlaub":6247,"##vn":6248,"Dres":6249,"Geheim":6250,"erschienen":6251,"##jenigen":6252,"Mex":6253,"beschlossen":6254,"hauptsächlich":6255,"1981":6256,"Sitzung":6257,"reag":6258,"##rüst":6259,"spät":6260,"Hat":6261,"##zuführen":6262,"Bier":6263,"automat":6264,"öffentliche":6265,"##vi":6266,"Herzen":6267,"##gewicht":6268,"endgül":6269,"Halle":6270,"Angriff":6271,"technischen":6272,"##/10":6273,"kn":6274,"zusätzlich":6275,"Spitzen":6276,"##attung":6277,"##ziehung":6278,"gründete":6279,"komplett":6280,"Sant":6281,"And":6282,"natür":6283,"##antrag":6284,"##vertreten":6285,"Vergangenheit":6286,"ausgeb":6287,"##hindern":6288,"ändern":6289,"Binnen":6290,"Metall":6291,"qualif":6292,"Soldaten":6293,"Fo":6294,"prom":6295,"Veranstaltung":6296,"Organ":6297,"schloss":6298,"engag":6299,"entwickeln":6300,"##DF":6301,"Klassen":6302,"Praxis":6303,"Küche":6304,"Exp":6305,"schlecht":6306,"1000":6307,"##stätte":6308,"Wur":6309,"Termin":6310,"erlaubt":6311,"##/12":6312,"Güter":6313,"endlich":6314,"hr":6315,"geprä":6316,"Dänemark":6317,"Back":6318,"Fotos":6319,"##ove":6320,"##zeugung":6321,"Laufe":6322,"##ländischen":6323,"##größ":6324,"sorgen":6325,"erwarten":6326,"##37":6327,"Dra":6328,"Einrichtung":6329,"gesetzt":6330,"sec":6331,"&#":6332,"##fragt":6333,"Einrichtungen":6334,"gespielt":6335,"##schulen":6336,"page":6337,"Ann":6338,"Restaurant":6339,"Büro":6340,"Papier":6341,"##sal":6342,"Baden":6343,"Bischof":6344,"Vir":6345,"##ördern":6346,"##fu":6347,"##spann":6348,"getr":6349,"##09.":6350,"##ährungs":6351,"Behandlung":6352,"Einsch":6353,"Karten":6354,"##tlichen":6355,"##ellschaften":6356,"Abschnitt":6357,"kür":6358,"dritte":6359,"legte":6360,"##reng":6361,"Zweck":6362,"jüd":6363,"##partment":6364,"##ford":6365,"\"(":6366,"##führten":6367,"offenbar":6368,"Bücher":6369,"fuhr":6370,"wachsen":6371,"reicht":6372,"verheiratet":6373,"früheren":6374,"##ehlt":6375,"steigen":6376,"dank":6377,"##enter":6378,"##aw":6379,"Colle":6380,"Ausdruck":6381,"Schwarz":6382,"hingegen":6383,"##ree":6384,"##igi":6385,"##orien":6386,"##En":6387,"Portugal":6388,"##\"),":6389,"##ction":6390,"##ikations":6391,"Haar":6392,"mittlerweile":6393,"##siehe":6394,"jährlich":6395,"##organisation":6396,"##Ge":6397,"##ates":6398,"Treffen":6399,"Wachstum":6400,"##ots":6401,"Ausnahme":6402,"Sei":6403,"stieg":6404,"Pflege":6405,"##ink":6406,"rest":6407,"Strand":6408,"1975":6409,"##zeichnen":6410,"usw":6411,"##gels":6412,"##10;":6413,"##aute":6414,"Fahrzeuge":6415,"##rhein":6416,"Schlüssel":6417,"Erklärung":6418,"Autom":6419,"5,":6420,"Großbritannien":6421,"##Br":6422,"weißt":6423,"Windows":6424,"Rö":6425,"##hauses":6426,"##47":6427,"You":6428,"Por":6429,"##pla":6430,"##angs":6431,"Zustand":6432,"##zo":6433,"Versuch":6434,"##liste":6435,"Junge":6436,"##TV":6437,"##stoß":6438,"Verpflicht":6439,"vermutlich":6440,"Verantwortung":6441,"Sar":6442,"älte":6443,"##wendungen":6444,"Punkten":6445,"##05.":6446,"##:20":6447,"85":6448,"überw":6449,"Wege":6450,"##aßt":6451,"##syl":6452,"griech":6453,"##:45":6454,"##Bahn":6455,"##ritts":6456,"Schu":6457,"##ändler":6458,"Luxemburg":6459,"Agrar":6460,"beschrieben":6461,"ersetzt":6462,"südlich":6463,"##law":6464,"Eind":6465,"Gran":6466,"Bayer":6467,"##ürn":6468,"##rainer":6469,"Qual":6470,"##otos":6471,"2008,":6472,"1978":6473,"##ye":6474,"##immobil":6475,"laufen":6476,"##ris":6477,"##reiter":6478,"Sw":6479,"##cis":6480,"berühm":6481,"##kw":6482,"Gewerk":6483,"erinnert":6484,"Dor":6485,"Anspruch":6486,"Arzt":6487,"Merkel":6488,"tief":6489,"Kurs":6490,"Ungar":6491,"Jeder":6492,"Sind":6493,"Technologie":6494,"Schmid":6495,"##zin":6496,"gesetz":6497,"Beschwer":6498,"##kirchen":6499,"##erien":6500,"me":6501,"Glauben":6502,"##atein":6503,"Untersuchung":6504,"##fonds":6505,"Finale":6506,"Nah":6507,"Europas":6508,"ren":6509,"konk":6510,"Anschließend":6511,"##das":6512,"Gelände":6513,"##ION":6514,"##stock":6515,"ernannt":6516,"Bezirks":6517,"##bauten":6518,"##01.":6519,"q":6520,"##werks":6521,"##ebook":6522,"getö":6523,"Breakfast":6524,"##AU":6525,"##/03":6526,"vorge":6527,"dur":6528,"Gewicht":6529,"##EIN":6530,"befand":6531,"Joseph":6532,"denken":6533,"##weite":6534,"reduz":6535,"gez":6536,"Ausland":6537,"##eige":6538,"##geschrieben":6539,"bestätigt":6540,"damaligen":6541,"##messen":6542,"##verkehrs":6543,"##meter":6544,"Studie":6545,"Immer":6546,"großes":6547,"Sm":6548,"##ängnis":6549,"##liefert":6550,"##komp":6551,"einschließlich":6552,"Show":6553,"##icherungs":6554,"verhindern":6555,"##the":6556,"besonderen":6557,"##ther":6558,"##holen":6559,"##alls":6560,"ster":6561,"Gegner":6562,"##leger":6563,"Bestimmungen":6564,"##gyp":6565,"##ales":6566,"historischen":6567,"time":6568,"Bron":6569,"Zuschauer":6570,"Vereinbar":6571,"Tschech":6572,"##rufe":6573,"Holl":6574,"Produktions":6575,"##ask":6576,"##öffnen":6577,"Finanzierung":6578,"##sozial":6579,"EP":6580,"vern":6581,"Kapit":6582,"Forder":6583,"##stellungs":6584,"privaten":6585,"Änderungen":6586,"niedr":6587,"Mikro":6588,"Lass":6589,"standen":6590,"zurückge":6591,"bekam":6592,"lernen":6593,"Sub":6594,"2018,":6595,"Wochenende":6596,"##öffnung":6597,"Fäh":6598,"##gerufen":6599,"größeren":6600,"türk":6601,"##ysil":6602,"##01":6603,"##plo":6604,"##.-":6605,"Grünen":6606,"##zähl":6607,"dauer":6608,"Zen":6609,"begrü":6610,"##pfl":6611,"##rill":6612,"##66":6613,"##oche":6614,"##blei":6615,"##nitt":6616,"glück":6617,"Brüssel":6618,"##onom":6619,"##ville":6620,"Gedanken":6621,"##sem":6622,"##:05":6623,"Annahme":6624,"ausgestattet":6625,"##SE":6626,"##auert":6627,"Kapital":6628,"##Ex":6629,"Wehr":6630,"##owak":6631,"zählt":6632,"##meer":6633,"verur":6634,"nud":6635,"##bten":6636,"120":6637,"##ysilvia":6638,"##ladysilvia":6639,"Veranstaltungen":6640,"Wettbewerbs":6641,"Etw":6642,"##ymnasium":6643,"1972":6644,"##oth":6645,"Hersteller":6646,"##mode":6647,"Grab":6648,"##ISCH":6649,"##HR":6650,"kg":6651,"Olympischen":6652,"nördlich":6653,"##7-":6654,"##06.":6655,"deinen":6656,"neg":6657,"##bern":6658,"##deu":6659,"absolvierte":6660,"sen":6661,"Koordin":6662,"Val":6663,"##regel":6664,"Koalition":6665,"##any":6666,"##Das":6667,"Datum":6668,"Später":6669,"Einkommen":6670,"Todes":6671,"##su":6672,"Tanz":6673,"##flü":6674,"##decken":6675,"Kammer":6676,"##umb":6677,"##konom":6678,"bisschen":6679,"Josef":6680,"##ior":6681,"umfang":6682,"##teilte":6683,"##row":6684,"Entschließ":6685,"we":6686,"Schuld":6687,"Aud":6688,"Tore":6689,"Gemeinder":6690,"##ln":6691,"##fur":6692,"mar":6693,"Konferenz":6694,"##ernt":6695,"##8;":6696,"Technolog":6697,"##/01":6698,"##polit":6699,"Cal":6700,"James":6701,"##lla":6702,"ernst":6703,"Kirch":6704,"Einheit":6705,"##hoff":6706,"https":6707,"dennoch":6708,"Radio":6709,"ausgew":6710,"that":6711,"County":6712,"ndu":6713,"##zahlt":6714,"verlor":6715,"zufrieden":6716,"##baum":6717,"Juden":6718,"sex":6719,"trifft":6720,"Kro":6721,"Urteil":6722,"##bliothek":6723,"zuerst":6724,"Genau":6725,"##las":6726,"Sun":6727,"##tiges":6728,"##94":6729,"##reit":6730,"weiteres":6731,"Otto":6732,"##unken":6733,"Real":6734,"##fiel":6735,"manchmal":6736,"hieß":6737,"Frühjahr":6738,"läng":6739,"##ID":6740,"##riester":6741,"ermöglichen":6742,"##Bo":6743,"Fans":6744,"Bundesliga":6745,"Mitgliedstaat":6746,"Wohnungen":6747,"##ratete":6748,"##64":6749,"nennen":6750,"Alters":6751,"##mär":6752,"##sph":6753,"ungefähr":6754,"##kore":6755,"Haut":6756,"##ritz":6757,"kor":6758,"verp":6759,"amerikanischen":6760,"nahmen":6761,"Tabellen":6762,"George":6763,"##ku":6764,"##wirt":6765,"##izieren":6766,"inkl":6767,"##einer":6768,"elf":6769,"eins":6770,"##eicher":6771,"##iversität":6772,"Wand":6773,"Aufnahme":6774,"Arbeitgeber":6775,"1976":6776,"udn":6777,"Fü":6778,"##:11":6779,"Wash":6780,"Sekunden":6781,"dienen":6782,"##ibel":6783,"Sign":6784,"Initiative":6785,"##38":6786,"Aufbau":6787,"Vf":6788,"Hinblick":6789,"Erwachsen":6790,"Reichs":6791,"Einwohnern":6792,"##ternehmer":6793,"Kapitel":6794,"Ansicht":6795,"ähnlich":6796,"##äufer":6797,"##irektor":6798,"##maschinen":6799,"##örderung":6800,"Dafür":6801,"##etzungen":6802,"##eir":6803,"##orb":6804,"Ast":6805,"##ziehungs":6806,"ziemlich":6807,"dnu":6808,"Analyse":6809,"Spann":6810,"##afft":6811,"geändert":6812,"##aps":6813,"##ffend":6814,"Çá":6815,"eingeführt":6816,"Finn":6817,"##forderung":6818,"prü":6819,"Turm":6820,"übertragen":6821,"##oben":6822,"##\",\"":6823,"1974":6824,"Grundstück":6825,"Arm":6826,"Kont":6827,"Walter":6828,"##ulation":6829,"disku":6830,"##weist":6831,"##gg":6832,"##Es":6833,"Milch":6834,"Turnier":6835,"verurs":6836,"hör":6837,"High":6838,"Kredit":6839,"li":6840,"Prop":6841,"anerk":6842,"öffentlich":6843,"Münster":6844,"übernehmen":6845,"Adr":6846,"entweder":6847,"Sum":6848,"##252;":6849,"##Se":6850,"##lleg":6851,"miteinander":6852,"##waren":6853,"##hoch":6854,"##holz":6855,"Gal":6856,"Lied":6857,"##mitglied":6858,"angegeben":6859,"##klag":6860,"Sau":6861,"##ächs":6862,"Stern":6863,"SC":6864,"Engagement":6865,"musikal":6866,"##örung":6867,"Prüfung":6868,"Lok":6869,"Bonn":6870,"1973":6871,"fließ":6872,"entdeckt":6873,"Teilen":6874,"späteren":6875,"1977":6876,"erscheint":6877,"##:01":6878,"Andere":6879,"Kombin":6880,"Abteilung":6881,"##tret":6882,"Hy":6883,"##partner":6884,"Last":6885,"Anna":6886,"Investition":6887,"Sonne":6888,"spezif":6889,"Schließlich":6890,"Mod":6891,"##legte":6892,"Wirklich":6893,"##sequ":6894,"eingerichtet":6895,"##atter":6896,"Investitionen":6897,"IV":6898,"##ses":6899,"beit":6900,"##bezogen":6901,"##lehr":6902,"Jazz":6903,"wichtigen":6904,"Bir":6905,"##achtung":6906,"Hochschule":6907,"##essour":6908,"Mord":6909,"##ameister":6910,"##AB":6911,"Autos":6912,"Sex":6913,"##präsent":6914,"##kauft":6915,"Merk":6916,"zugleich":6917,"##äh":6918,"##izierte":6919,"abgel":6920,"Anlagen":6921,"Anzei":6922,"Irland":6923,"##funk":6924,"##messer":6925,"getötet":6926,"stat":6927,"Gewinn":6928,"##jekten":6929,"##andt":6930,"Tonnen":6931,"##9/":6932,"Beschreibung":6933,"##ouver":6934,"tritt":6935,"Math":6936,"verg":6937,"Lebensmittel":6938,"##ündet":6939,"##icherheit":6940,"Fund":6941,"##air":6942,"##Ch":6943,"##liefer":6944,"Dritt":6945,"Baby":6946,"Brem":6947,"poln":6948,"lieber":6949,"##Sa":6950,"##bast":6951,"wusste":6952,"##räf":6953,"Jean":6954,"behandelt":6955,"fehl":6956,"offiziell":6957,"militär":6958,"your":6959,"Interview":6960,"##apie":6961,"herum":6962,"Relig":6963,"##hafte":6964,"sehe":6965,"kommun":6966,"##stands":6967,"Hermann":6968,"##dens":6969,"##ehnte":6970,"Sö":6971,"##bedingt":6972,"online":6973,"##vertreter":6974,"##greifen":6975,"Heiligen":6976,"##schlossen":6977,"##6-":6978,"##kund":6979,"##hören":6980,"##hofs":6981,"##partem":6982,"##ulen":6983,"Zürich":6984,"Rettungs":6985,"Ausbildungs":6986,"##versorgung":6987,"Geschle":6988,"Sprachen":6989,"##aller":6990,"Teilnahme":6991,"wichtiger":6992,"pre":6993,"kehrte":6994,"##ando":6995,"##bef":6996,"##ory":6997,"Regeln":6998,"Unterricht":6999,"##03.":7000,"Konkur":7001,"##System":7002,"##DP":7003,"##dl":7004,"##IR":7005,"##arischen":7006,"Quadrat":7007,"##aser":7008,"##kammer":7009,"##serie":7010,"##:04":7011,"##häre":7012,"##bezirk":7013,"Gerichtshof":7014,"##sinn":7015,"Fleisch":7016,"intens":7017,"2007,":7018,"starken":7019,"Miet":7020,"##itsch":7021,"##richter":7022,"##ownload":7023,"##antwor":7024,"##chem":7025,"chines":7026,"Schauspieler":7027,"Anforderungen":7028,"del":7029,"freien":7030,"##:19":7031,"##imen":7032,"##zieht":7033,"kontroll":7034,"erzielte":7035,"Stiftung":7036,"Ortsteil":7037,"##ted":7038,"Hab":7039,"dient":7040,"Bremen":7041,"dro":7042,"##ziplin":7043,"##heimer":7044,"Wahrheit":7045,"##izei":7046,"Chancen":7047,"Entscheidungen":7048,"##züge":7049,"fra":7050,"geringer":7051,"Len":7052,"Altern":7053,"Papst":7054,"##eiern":7055,"zerstört":7056,"Ausgabe":7057,"ter":7058,"##sex":7059,"Open":7060,"##ils":7061,"Fahrt":7062,"##55":7063,"##SP":7064,"1920":7065,"Sag":7066,"##örter":7067,"japan":7068,"Stadtteil":7069,"##ränkt":7070,"Veränderungen":7071,"Washington":7072,"daraufhin":7073,"##ümer":7074,"Management":7075,"##SC":7076,"##:12":7077,"##sekretär":7078,"##eting":7079,"World":7080,"Mand":7081,"##werten":7082,"##AD":7083,"denk":7084,"##iers":7085,"##rink":7086,"italienischen":7087,"##wr":7088,"##agn":7089,"250":7090,"##schluß":7091,"komme":7092,"Sonst":7093,"##ifferen":7094,"kaufen":7095,"Renn":7096,"Beob":7097,"Frühstück":7098,"Mitteilung":7099,"sicht":7100,"##bas":7101,"Musiker":7102,"##artet":7103,"bi":7104,"verfügbar":7105,"Integration":7106,"Mul":7107,"ergeben":7108,"##schn":7109,"weist":7110,"beeinfl":7111,"##isen":7112,"zieht":7113,"Cas":7114,"Formen":7115,"##:03":7116,"zeich":7117,"##freund":7118,"##graben":7119,"##enntnisse":7120,"Ohne":7121,"##2016":7122,"##ätter":7123,"##unsten":7124,"hergestellt":7125,"##ieur":7126,"weitgehend":7127,"+49":7128,"1930":7129,"iden":7130,"##wirken":7131,"Teams":7132,"##ican":7133,"diente":7134,"##iede":7135,"Stimme":7136,"##:17":7137,"##Vertrag":7138,"verwenden":7139,"Brücke":7140,"##images":7141,"##vt":7142,"Quellen":7143,"##muse":7144,"rech":7145,"##:02":7146,"##nummer":7147,"##sper":7148,"Fischerei":7149,"10,":7150,"##region":7151,"verbessern":7152,"Mond":7153,"leisten":7154,"##iol":7155,"##itutionen":7156,"Jak":7157,"Zentral":7158,"beweg":7159,"Lad":7160,"Hir":7161,"Nürn":7162,"betont":7163,"##ehmigung":7164,"##:21":7165,"##ugen":7166,"Rathaus":7167,"##atik":7168,"Gelegenheit":7169,"ST":7170,"Ausschuß":7171,"möglichst":7172,"Mission":7173,"Schau":7174,"sub":7175,"##din":7176,"Farbe":7177,"städ":7178,"zuständig":7179,"38":7180,"##dels":7181,"betrieben":7182,"Verlauf":7183,"zusätzliche":7184,"##CO":7185,"sogenannte":7186,"Anp":7187,"37":7188,"##hü":7189,"##uther":7190,"##ständen":7191,"mehrfach":7192,"Song":7193,"##ria":7194,"Reisen":7195,"##zenz":7196,"Erzeugnisse":7197,"Sehr":7198,"##oh":7199,"bekommt":7200,"unbek":7201,"##klass":7202,"1968":7203,"##isst":7204,"Anh":7205,"##iller":7206,"##ssystem":7207,"nachhal":7208,"##96":7209,"##Komm":7210,"##steigen":7211,"##usion":7212,"##sphäre":7213,"Orte":7214,"##Fra":7215,"##daten":7216,"Schnell":7217,"van":7218,"##vollen":7219,"##iguren":7220,"##ätigkeiten":7221,"##:07":7222,"##handlung":7223,"heil":7224,"Bezirk":7225,"bemer":7226,"Prinzip":7227,"Regisse":7228,"Höch":7229,"Ehr":7230,"Ring":7231,"##isieren":7232,"##material":7233,"Täter":7234,"##asser":7235,"##dt":7236,"##ous":7237,"zählen":7238,"begrün":7239,"verließ":7240,"##hst":7241,"##afen":7242,"Vorschriften":7243,"starke":7244,"Koch":7245,"##sektor":7246,"##Spiel":7247,"benannt":7248,"feier":7249,"United":7250,"##öse":7251,"##ardin":7252,"##usern":7253,"Justiz":7254,"##:14":7255,"Bä":7256,"##ktien":7257,"##iste":7258,"eingesch":7259,"##reck":7260,"##wissenschaften":7261,"stellvertreten":7262,"##kultur":7263,"höchsten":7264,"vorber":7265,"gesprochen":7266,"Experten":7267,"##innern":7268,"letzter":7269,"durchaus":7270,"daraus":7271,"##zone":7272,"##ziger":7273,"Jungen":7274,"##produktion":7275,"Ideen":7276,"##–18":7277,"##:13":7278,"Beschluss":7279,"##rand":7280,"##app":7281,"##versicherung":7282,"Organisationen":7283,"##ube":7284,"wid":7285,"Rä":7286,"Schatz":7287,"##:06":7288,"##emit":7289,"##ausend":7290,"guter":7291,"Aufstieg":7292,"##tz":7293,"##fangen":7294,"##ürgen":7295,"efs":7296,"Oct":7297,"##minist":7298,"Kommunikation":7299,"Denkmal":7300,"Vorder":7301,"##Bundes":7302,"Mi":7303,"Rückkehr":7304,"technische":7305,"Kal":7306,"##04.":7307,"Ersatz":7308,"Auft":7309,"AR":7310,"##artige":7311,"##bauer":7312,"##aner":7313,"Leon":7314,"##schafter":7315,"##/?":7316,"benutzt":7317,"trotzdem":7318,"Ausbau":7319,"##:16":7320,"künftig":7321,"##text":7322,"galt":7323,"##ählten":7324,"##Auf":7325,"##ross":7326,"##ÿÿ":7327,"Philosoph":7328,"mache":7329,"Umsatz":7330,"##indet":7331,"##\").":7332,"berichtete":7333,"erstes":7334,"Ruf":7335,"CSU":7336,"fordert":7337,"##ausende":7338,"##ikaner":7339,"##gin":7340,"säm":7341,"Tut":7342,"DE":7343,"jünger":7344,"Ausschusses":7345,"##grenze":7346,"Jac":7347,"Angelegen":7348,"passen":7349,"##Ger":7350,"##&#228;":7351,"Os":7352,"Roll":7353,"##ichert":7354,"##Bild":7355,"Are":7356,"##steiger":7357,"Dipl":7358,"entsprechende":7359,"##&#252;":7360,"wirtschaftliche":7361,"##ón":7362,"Rosen":7363,"##42":7364,"##ünder":7365,"Vorhaben":7366,"##izierung":7367,"Diskussion":7368,"##SS":7369,"##ößen":7370,"elektr":7371,"Zivil":7372,"##ädag":7373,"traf":7374,"Kanton":7375,"##wuchs":7376,"##Ma":7377,"Sachen":7378,"##amens":7379,"evangel":7380,"IT":7381,"Brasil":7382,"Besonders":7383,"breit":7384,"##endung":7385,"medizin":7386,"##zugs":7387,"##HL":7388,"##sträger":7389,"Rech":7390,"##prüft":7391,"Facebook":7392,"##aktiv":7393,"Spitze":7394,"##unger":7395,"##:08":7396,"erhöht":7397,"verpflichtet":7398,"Soc":7399,"Beteiligung":7400,"##orm":7401,"6,":7402,"##annen":7403,"##arlehen":7404,"Infrastruktur":7405,"Sektor":7406,"##bett":7407,"Europe":7408,"Albert":7409,"Hände":7410,"Messe":7411,"1933":7412,"eingestellt":7413,"##nicht":7414,"sodass":7415,"##ato":7416,"##sichts":7417,"##maschine":7418,"Tourismus":7419,"fü":7420,"elektron":7421,"habt":7422,"Gab":7423,"##ogle":7424,"##ähler":7425,"##/-/-":7426,"##Jahr":7427,"Freude":7428,"samm":7429,"geeignet":7430,"erklären":7431,"##gebiete":7432,"##:40":7433,"##ani":7434,"Dec":7435,"Elektro":7436,"##abeth":7437,"Wed":7438,"fördern":7439,"EN":7440,"##So":7441,"Eich":7442,"##:23":7443,"PC":7444,"##top":7445,"##tigte":7446,"##ausschuss":7447,"frag":7448,"##ussen":7449,"Kas":7450,"##nov":7451,"##kom":7452,"##utzung":7453,"##umente":7454,"##ioren":7455,"##schaffen":7456,"blau":7457,"##:22":7458,"##fällen":7459,"##neter":7460,"##ader":7461,"##essourcen":7462,"Schwierigkeiten":7463,"##ünden":7464,"##onstr":7465,"##02.":7466,"##FR":7467,"##:09":7468,"Zurück":7469,"russischen":7470,"1971":7471,"##alerie":7472,"gefallen":7473,"betrug":7474,"Revolution":7475,"##ärm":7476,"##93":7477,"##otto":7478,"täglich":7479,"##ämpfung":7480,"##fc":7481,"Staffel":7482,"##falen":7483,"lief":7484,"Tenn":7485,"Gru":7486,"Wieso":7487,"##IM":7488,"Jesus":7489,"gering":7490,"##iw":7491,"##orfen":7492,"##:50":7493,"##iode":7494,"##bald":7495,"betrifft":7496,"ejf":7497,"schreibt":7498,"Alkohol":7499,"kostenlos":7500,"Vorschläge":7501,"##sg":7502,"(4)":7503,"rechten":7504,"EWG":7505,"heiratete":7506,"##:18":7507,"##ätzt":7508,"Traum":7509,"##kurs":7510,"Lim":7511,"##falt":7512,"VER":7513,"Dresden":7514,"zuge":7515,"Beamten":7516,"Brenn":7517,"Tatsache":7518,"##stete":7519,"##erkennung":7520,"##ütte":7521,"##-10":7522,"##istin":7523,"##haften":7524,"##amerika":7525,"##höhe":7526,"ausges":7527,"Bom":7528,"Direkt":7529,"##zog":7530,"##yle":7531,"Sehen":7532,"##Der":7533,"##station":7534,"Freiheit":7535,"Fal":7536,"##AND":7537,"##arn":7538,"Zentr":7539,"##anda":7540,"gleiche":7541,"Villa":7542,"unterschiedlich":7543,"Ritter":7544,"Vertrags":7545,"##cia":7546,"brauche":7547,"##indert":7548,"##amerikanischen":7549,"tro":7550,"Bereiche":7551,"##üren":7552,"2010,":7553,"Farben":7554,"behaup":7555,"##seits":7556,"##heben":7557,"stimmt":7558,"##meisterschaften":7559,"##rib":7560,"AfD":7561,"##handels":7562,"Prüf":7563,"Französ":7564,"Entschuld":7565,"glob":7566,"mass":7567,"Beziehung":7568,"Sebast":7569,"##rig":7570,"##);":7571,"überall":7572,"Roh":7573,"Blei":7574,"##:25":7575,"mark":7576,"Autobahn":7577,"Anzeige":7578,"##grad":7579,"Fak":7580,"Klar":7581,"##/02":7582,"##füll":7583,"##künfte":7584,"hinsichtlich":7585,"##zum":7586,"1940":7587,"##ension":7588,"##ötzlich":7589,"##\":\"":7590,"Regelung":7591,"##ado":7592,"##leh":7593,"##dis":7594,"##ret":7595,"teilte":7596,"##Man":7597,"aktuell":7598,"senden":7599,"##istenz":7600,"Ungarn":7601,"##ostat":7602,"freuen":7603,"Nachfrage":7604,"Sammlung":7605,"##urn":7606,"Herrschaft":7607,"##auso":7608,"##pon":7609,"Hessen":7610,"Luxus":7611,"Geräte":7612,"erhoben":7613,"Jugendlichen":7614,"Geburtstag":7615,"##Her":7616,"Damen":7617,"##alys":7618,"treten":7619,"wählen":7620,"##annter":7621,"seid":7622,"Dialog":7623,"Städten":7624,"##felder":7625,"##undert":7626,"Mrd":7627,"Award":7628,"##umber":7629,"44":7630,"fragen":7631,"##rd":7632,"Hit":7633,"1969":7634,"##berech":7635,"##machen":7636,"..":7637,"##raw":7638,"Sieger":7639,"##tigten":7640,"##präsident":7641,"##orth":7642,"Harr":7643,"festgelegt":7644,"invest":7645,"(00":7646,"Erweiterung":7647,"Gebiete":7648,"##sätzlich":7649,"##abkommen":7650,"##fachen":7651,"Grand":7652,"Vorsitzende":7653,"##rachtet":7654,"Fertig":7655,"übersch":7656,"600":7657,"##hnung":7658,"Rücken":7659,"##person":7660,"Umfang":7661,"gezogen":7662,"Erwerb":7663,"Gefühl":7664,"##here":7665,"verändert":7666,"Spr":7667,"Priester":7668,"Kop":7669,"Gefängnis":7670,"Klass":7671,"##ralien":7672,"schweren":7673,"folgten":7674,"##lings":7675,"##zeigen":7676,"verlang":7677,"Deutschlands":7678,"my":7679,"##TEN":7680,"##loß":7681,"wesentlich":7682,"kauf":7683,"Asp":7684,"unterb":7685,"Live":7686,"##stimmen":7687,"Dennoch":7688,"Roy":7689,"##issar":7690,"Planung":7691,"##63":7692,"Offiz":7693,"##rachte":7694,"49":7695,"Festival":7696,"##erg":7697,"##stern":7698,"2015,":7699,"##')":7700,"##prüfung":7701,"Bedürf":7702,"Studio":7703,"aktualisiert":7704,"Cast":7705,"Englisch":7706,"##sid":7707,"Markus":7708,"##dat":7709,"digit":7710,"möglicherweise":7711,"##:59":7712,"##TL":7713,"##ieden":7714,"positiv":7715,"Geändert":7716,"Herzog":7717,"##ulgar":7718,"##neider":7719,"Bewertung":7720,"##räumen":7721,"hoffe":7722,"geist":7723,"Press":7724,"nennt":7725,"##zusetzen":7726,"Darstellung":7727,"##KS":7728,"nötig":7729,"kurze":7730,"Starts":7731,"bo":7732,"Architektur":7733,"##ubil":7734,"##BER":7735,"##fristig":7736,"##sich":7737,"funktioniert":7738,"##itur":7739,"Vic":7740,"##karte":7741,"##fter":7742,"nutz":7743,"##otten":7744,"##arzt":7745,"Akademie":7746,"Häuser":7747,"##jähriger":7748,"Entwurf":7749,"erscheinen":7750,"03.":7751,"Marc":7752,"Ca":7753,"Kanada":7754,"##tien":7755,"Hoffnung":7756,"##Datei":7757,"2006,":7758,"Karls":7759,"##leute":7760,"Links":7761,"##kommt":7762,"##67":7763,"Programme":7764,"Nic":7765,"##hörigen":7766,"##oman":7767,"Erste":7768,"##ichtigung":7769,"##ucher":7770,"##igkeits":7771,"Refer":7772,"##agne":7773,"##:26":7774,"##zeichnungen":7775,"##ätzung":7776,"Fahrrad":7777,"Misch":7778,"Abgeordneten":7779,"##beit":7780,"modernen":7781,"vierten":7782,"stattfinden":7783,"##geht":7784,"##ual":7785,"Unterschied":7786,"Vorteile":7787,"Großen":7788,"##ental":7789,"##öch":7790,"Syr":7791,"Konst":7792,"Unabhäng":7793,"Bewohner":7794,"##werken":7795,"bekannten":7796,"##abteilung":7797,"wohn":7798,"Zucker":7799,"bessere":7800,"##westlich":7801,"48":7802,"Familienname":7803,"Träger":7804,"ergibt":7805,"##eins":7806,"##krit":7807,"##/2":7808,"verabschie":7809,"akzep":7810,"##öger":7811,"##grenzen":7812,"bestehenden":7813,"betreffend":7814,"einiger":7815,"##ards":7816,"lebte":7817,"##FA":7818,"##dex":7819,"##figur":7820,"Protokoll":7821,"##wel":7822,"gedacht":7823,"##andelte":7824,"Blumen":7825,"##IL":7826,"##ühlen":7827,"geprägt":7828,"generated":7829,"einzigen":7830,"##ffizien":7831,"Linien":7832,"##leiten":7833,"vorgeschlagen":7834,"##struktion":7835,"Aufenthalt":7836,"überwiegend":7837,"##fi":7838,"##meldung":7839,"Akte":7840,"Schnitt":7841,"diver":7842,"Jugendliche":7843,"Bord":7844,"##mäch":7845,"##wood":7846,"##kür":7847,"##RO":7848,"AN":7849,"##rak":7850,"##ungsmittel":7851,"##kehrt":7852,"##führte":7853,"Werner":7854,"##wenden":7855,"##:33":7856,"Behinder":7857,"##ichteten":7858,"##ischt":7859,"##ny":7860,"##ues":7861,"##IV":7862,"Anwesen":7863,"##nitz":7864,"##ged":7865,"##Ser":7866,"Sowjet":7867,"##paar":7868,"Beschluß":7869,"toll":7870,"Mund":7871,"Inseln":7872,"psych":7873,"##68":7874,"##Chef":7875,"Neubau":7876,"##scheidet":7877,"##wahlen":7878,"##ony":7879,"Vermögen":7880,"private":7881,"Üb":7882,"post":7883,"nationale":7884,"Kaffee":7885,"install":7886,"##star":7887,"halb":7888,"##schiede":7889,"##bul":7890,"Gute":7891,"sech":7892,"produziert":7893,"Massen":7894,"Falle":7895,"##sm":7896,"##jdi":7897,"##/2015":7898,"Lohn":7899,"1938":7900,"schrift":7901,"##urer":7902,"##funktion":7903,"gesellschaft":7904,"42":7905,"Van":7906,"gestern":7907,"Australien":7908,"##rem":7909,"abgesch":7910,"schreiben":7911,"Schaffung":7912,"##cup":7913,"##einrichtungen":7914,"Bekannt":7915,"##tn":7916,"Worte":7917,"##)\"":7918,"Fernsehen":7919,"go":7920,"sterben":7921,"##91":7922,"linken":7923,"Fri":7924,"##zellen":7925,"Staatsanwalt":7926,"1939":7927,"##reuung":7928,"zahlen":7929,"##bieter":7930,"##ommun":7931,"Moskau":7932,"College":7933,"Zentime":7934,"Höhen":7935,"##bd":7936,"sage":7937,"aktuelle":7938,"erfüllt":7939,"kennt":7940,"##oret":7941,"##dar":7942,"Konzer":7943,"##leistungs":7944,"##rolle":7945,"##lers":7946,"Verlag":7947,"zweimal":7948,"Gebieten":7949,"Untersuchungen":7950,"##attform":7951,"Eg":7952,"##:35":7953,"##orts":7954,"##ERR":7955,"##liegt":7956,"##veranst":7957,"legen":7958,"Ly":7959,"Tief":7960,"Reihen":7961,"Sab":7962,"##gers":7963,"##pret":7964,"##iness":7965,"aufs":7966,"##:28":7967,"Ans":7968,"verlänger":7969,"##fron":7970,"richtige":7971,"##:24":7972,"erinnern":7973,"Bundesrepublik":7974,"Statt":7975,"##wachung":7976,"Zusatz":7977,"##iefe":7978,"Mannschaften":7979,"##afrika":7980,"##wege":7981,"sucht":7982,"##schef":7983,"##ieh":7984,"##El":7985,"Vogel":7986,"angesehen":7987,"##EC":7988,"Original":7989,"Golf":7990,"Schwerpunkt":7991,"##ption":7992,"krie":7993,"Zeich":7994,"Kühl":7995,"##,\"":7996,"##other":7997,"seconds":7998,"fehlt":7999,"Pau":8000,"Dör":8001,"##ora":8002,"schwierig":8003,"chem":8004,"schlä":8005,"Est":8006,"Gün":8007,"##forum":8008,"Nichts":8009,"Versand":8010,"Sebastian":8011,"stra":8012,"festge":8013,"organisiert":8014,"höchste":8015,"##Ne":8016,"##rans":8017,"Gründe":8018,"ständig":8019,"Sprecher":8020,"##92":8021,"Geschäftsführer":8022,"betonte":8023,"##xen":8024,"hand":8025,"##,00":8026,"##wohnung":8027,"verfügen":8028,"##:29":8029,"essen":8030,"Gewerbe":8031,"##blog":8032,"aust":8033,"Anerkennung":8034,"##wp":8035,"Gang":8036,"hinein":8037,"##echan":8038,"sinn":8039,"##weiten":8040,"##athl":8041,"nahezu":8042,"##fir":8043,"##:34":8044,"##alte":8045,"##Universität":8046,"künd":8047,"##wirtschafts":8048,"##pap":8049,"43":8050,"(10":8051,"Einer":8052,"eigenes":8053,"Nationen":8054,"##amerikanischer":8055,"##cycl":8056,"##Mus":8057,"##atell":8058,"verteid":8059,"gegangen":8060,"Naturschutz":8061,"Kompon":8062,"##azin":8063,"Fla":8064,"Off":8065,"##:31":8066,"sitzen":8067,"Statistik":8068,"##leistet":8069,"##deutsche":8070,"##ädagog":8071,"##hes":8072,"Phase":8073,"Dé":8074,"##iana":8075,"##VP":8076,"Hilfs":8077,"Dadurch":8078,"Germany":8079,"Männern":8080,"Darauf":8081,"##hagen":8082,"Methoden":8083,"Pflicht":8084,"##SD":8085,"san":8086,"Party":8087,"heutige":8088,"vergeben":8089,"unbedingt":8090,"künstler":8091,"##deutschen":8092,"##atin":8093,"##uba":8094,"Mindest":8095,"##cord":8096,"Evangel":8097,"##alismus":8098,"lokalen":8099,"Kohle":8100,"##ump":8101,"Stich":8102,"##klar":8103,"eindeu":8104,"##bieten":8105,"Anst":8106,"##ois":8107,"##ined":8108,"##het":8109,"##änen":8110,"##arische":8111,"##/09":8112,"##ura":8113,"Niederlande":8114,"Acht":8115,"Vorbereitung":8116,"einzelne":8117,"##einheit":8118,"##wan":8119,"##isa":8120,"Spielzeit":8121,"Ausgang":8122,"Mitgliedern":8123,"Way":8124,"##gerichts":8125,"##üß":8126,"trug":8127,"##kus":8128,"Gleichzeitig":8129,"mu":8130,"Rem":8131,"Nachricht":8132,"##icke":8133,"##werber":8134,"Meeres":8135,"Pläne":8136,"##hmen":8137,"weib":8138,"Hohen":8139,"##kunde":8140,"Farb":8141,"##&#10;":8142,"##ruhe":8143,"garan":8144,"erläu":8145,"##itute":8146,"Thr":8147,"River":8148,"schützen":8149,"##namen":8150,"schließen":8151,"Gött":8152,"zunehmend":8153,"Zugriffe":8154,"##dauer":8155,"1944":8156,"Drittel":8157,"##/07/16":8158,"1.3.":8159,"##ländische":8160,"versp":8161,"möglichen":8162,"##ved":8163,"Strategie":8164,"besuchen":8165,"##enkt":8166,"person":8167,"Asyl":8168,"Varian":8169,"##:56":8170,"extrem":8171,"Freizeit":8172,"##systeme":8173,"betrachtet":8174,"##ssen":8175,"erstellt":8176,"östlich":8177,"##karten":8178,"Erl":8179,"Teuf":8180,"##ologe":8181,"##kas":8182,"Wett":8183,"Island":8184,"gelegt":8185,"##ranten":8186,"Moder":8187,"2009,":8188,"##erer":8189,"##Co":8190,"profit":8191,"##adel":8192,"##ips":8193,"Vin":8194,"School":8195,"##swert":8196,"##BA":8197,"##ettet":8198,"##fertigt":8199,"##:44":8200,"##stätten":8201,"##mail":8202,"##spekte":8203,"schwed":8204,"##VD":8205,"mittels":8206,"##:54":8207,"speziell":8208,"##ky":8209,"schm":8210,"Loc":8211,"Lösungen":8212,"egal":8213,"Nav":8214,"##/04":8215,"persönlichen":8216,"Maxim":8217,"Aufmerksam":8218,"Einkauf":8219,"##cm":8220,"system":8221,"ew":8222,"##empl":8223,"Jahrzehn":8224,"Jungs":8225,"7,":8226,"britische":8227,"siehe":8228,"##wäl":8229,"bisherigen":8230,"gehörten":8231,"Banken":8232,"##ration":8233,"schne":8234,"Trend":8235,"2005,":8236,"Strecken":8237,"Friedhof":8238,"South":8239,"##griffen":8240,"##ografie":8241,"Aktien":8242,"##kep":8243,"##teile":8244,"##97":8245,"erweitert":8246,"##pper":8247,"FR":8248,"westlich":8249,"Ill":8250,"Seeh":8251,"Station":8252,"Beschäftigungs":8253,"##:27":8254,"##:42":8255,"voller":8256,"Jürgen":8257,"Buchst":8258,"Risiko":8259,"Vorgänger":8260,"pf":8261,"regionalen":8262,"Charles":8263,"##spir":8264,"Startseite":8265,"##tragung":8266,"Wär":8267,"Sturm":8268,"##äck":8269,"Eingang":8270,"##ziel":8271,"jen":8272,"##Jährigen":8273,"##Gesch":8274,"Fälle":8275,"##:55":8276,"##bene":8277,"##geschäft":8278,"ört":8279,"##neu":8280,"unge":8281,"kost":8282,"Bedarf":8283,"Guten":8284,"##mack":8285,"##rüstung":8286,"Christoph":8287,"lö":8288,"vorzu":8289,"berücksichtigt":8290,"kurzen":8291,"##ausbildung":8292,"Rechnung":8293,"Hard":8294,"falsch":8295,"Hinweise":8296,"Eröffnung":8297,"machst":8298,"Mas":8299,"führten":8300,"Beiträge":8301,"##höhung":8302,"41":8303,"Laur":8304,"Forst":8305,"Euch":8306,"1967":8307,"Cent":8308,"Höchst":8309,"legt":8310,"##rel":8311,"##bewegung":8312,"##61":8313,"##führungen":8314,"##emann":8315,"Dad":8316,"Tab":8317,"Domin":8318,"Kongress":8319,"##astrop":8320,"Mail":8321,"einheit":8322,"Orgel":8323,"##National":8324,"##wirkung":8325,"Artikels":8326,"finanziellen":8327,"Maj":8328,"##gä":8329,"zugunsten":8330,"aufgestellt":8331,"Jos":8332,"Abstimmung":8333,"ER":8334,"##otoren":8335,"Austausch":8336,"##/0/":8337,"untersch":8338,"Flächen":8339,"Halt":8340,"##:41":8341,"##:39":8342,"##furter":8343,"eingeb":8344,"Kart":8345,"deut":8346,"##gesp":8347,"Dun":8348,"Premier":8349,"Landschaft":8350,"##:32":8351,"##:43":8352,"Bör":8353,"sin":8354,"Play":8355,"Verständ":8356,"##perrt":8357,"##celona":8358,"geöffnet":8359,"verläuft":8360,"Arbeitsmarkt":8361,"##ender":8362,"##teils":8363,"##ufo":8364,"##kat":8365,"##ahrt":8366,"schwarz":8367,"öffnen":8368,"Kos":8369,"##essel":8370,"##wertet":8371,"präsentiert":8372,"Fass":8373,"800":8374,"~":8375,"Regie":8376,"Ukra":8377,"namens":8378,"##uliert":8379,"herunter":8380,"##udes":8381,"bewusst":8382,"okay":8383,"Ursprung":8384,"finde":8385,"##km":8386,"AK":8387,"ausdrück":8388,"Mol":8389,"verliehen":8390,"##sur":8391,"##erung":8392,"##zwe":8393,"Training":8394,"Reaktion":8395,"Beweg":8396,"Mur":8397,"−":8398,"hilft":8399,"##räch":8400,"##weich":8401,"festgestellt":8402,"##ingung":8403,"verlieren":8404,"##NA":8405,"versuchte":8406,"##:36":8407,"##körper":8408,"##var":8409,"Beschwerde":8410,"Iran":8411,"Partie":8412,"##konferenz":8413,"##baus":8414,"Zunächst":8415,"unbe":8416,"Schle":8417,"Kolon":8418,"verurteilt":8419,"Tarif":8420,"Zeugen":8421,"Kooperation":8422,"##ao":8423,"##owski":8424,"1964":8425,"Semin":8426,"##mitglieder":8427,"Mauer":8428,"maß":8429,"##werben":8430,"Vertrieb":8431,"Deck":8432,"leider":8433,"belegte":8434,"##rückt":8435,"bean":8436,"##rinken":8437,"Keller":8438,"##ehme":8439,"##500":8440,"Pfarrer":8441,"##maßen":8442,"##reform":8443,"##itor":8444,"##abilität":8445,"Vaters":8446,"Lind":8447,"Konzern":8448,"Bevölkerungs":8449,"(7":8450,"##uplo":8451,"bewegen":8452,"##museum":8453,"vorgelegt":8454,"Erzb":8455,"schneller":8456,"##etzter":8457,"Terror":8458,"##rücken":8459,"Berichter":8460,"##eiteten":8461,"Institutionen":8462,"##Deutsch":8463,"meint":8464,"##%)":8465,"Meisterschaft":8466,"stür":8467,"##ffekt":8468,"##ächer":8469,"##istan":8470,"verste":8471,"Welche":8472,"Internationalen":8473,"männ":8474,"Tw":8475,"##östlichen":8476,"holen":8477,"##Wür":8478,"##aket":8479,"sport":8480,"##:57":8481,"##andte":8482,"##bilder":8483,"hoher":8484,"##teuer":8485,"##:52":8486,"außen":8487,"##:37":8488,"dargestellt":8489,"Jakob":8490,"Benutzer":8491,"##obby":8492,"##gentin":8493,"##98":8494,"Debatte":8495,"##:51":8496,"##SA":8497,"##spunkt":8498,"##klusive":8499,"##atischen":8500,"Salzburg":8501,"##önig":8502,"##nehmern":8503,"##cb":8504,"nn":8505,"blieben":8506,"Qualitäts":8507,"##Gruppe":8508,"industrie":8509,"Schlafzimmer":8510,"Zweit":8511,"Flugzeug":8512,"Schles":8513,"fehlen":8514,"Louis":8515,"Zahn":8516,"##kunfts":8517,"##zn":8518,"##Präsident":8519,"##bereit":8520,"Zeitschrift":8521,"##:58":8522,"dran":8523,"##:48":8524,"Aufmerksamkeit":8525,"##management":8526,"benötigt":8527,"interessiert":8528,"##vereins":8529,"solcher":8530,"Schiffe":8531,"Auffassung":8532,"Mexiko":8533,"#1":8534,"Verz":8535,"##scheidung":8536,"-20":8537,"Webseite":8538,"##Inst":8539,"profession":8540,"1946":8541,"##:46":8542,"##endorf":8543,"Diesel":8544,"Wag":8545,"wolle":8546,"angesichts":8547,"Lau":8548,"Sto":8549,"Widerstand":8550,"##ohnt":8551,"hc":8552,"##knü":8553,"Indust":8554,"##:38":8555,"Systems":8556,"##afel":8557,"Persön":8558,"##ausschusses":8559,"Prior":8560,"wuchs":8561,"Lesen":8562,"Sur":8563,"Zwar":8564,"Flucht":8565,"erfüllen":8566,"##brücke":8567,"Generation":8568,"Entfern":8569,"Vill":8570,"##:53":8571,"unabhängig":8572,"Gitar":8573,"46":8574,"Unternehmer":8575,"Master":8576,"Notwend":8577,"Bart":8578,"länd":8579,"befür":8580,"Glo":8581,"##eiche":8582,"Mut":8583,"westlichen":8584,"##ays":8585,"machten":8586,"##eind":8587,"Sus":8588,"genießen":8589,"Völker":8590,"deiner":8591,"hängt":8592,"ti":8593,"##leun":8594,"130":8595,"##isierten":8596,"Sorgen":8597,"1965":8598,"##wies":8599,"Fle":8600,"##eser":8601,"Genehmigung":8602,"160":8603,"##Sc":8604,"##ii":8605,"##zeitung":8606,"Geträn":8607,"##reichend":8608,"Reserv":8609,"Änderungs":8610,"überzeugt":8611,"Falls":8612,"leitete":8613,"Opp":8614,"kleines":8615,"##zten":8616,"##anze":8617,"registr":8618,"Regisseur":8619,"Feder":8620,"deinem":8621,"Hinweis":8622,"##irche":8623,"##hias":8624,"etc":8625,"Eck":8626,"töten":8627,"Datei":8628,">>":8629,"Autoren":8630,"ehemaliger":8631,"Kiel":8632,"Hamburger":8633,"Mittelmeer":8634,"##kunst":8635,"offenen":8636,"bauen":8637,"Bereit":8638,"##TA":8639,"##dach":8640,"genauso":8641,"##Part":8642,"##iki":8643,"Black":8644,"Freundin":8645,"draußen":8646,"Auftritt":8647,"##ody":8648,"Nürnberg":8649,"geblieben":8650,"##hf":8651,"Norwegen":8652,"promov":8653,"##sweise":8654,"##fordern":8655,"##utn":8656,"Afrika":8657,"##rs":8658,"Innenstadt":8659,"Schick":8660,"entsteht":8661,"##reckt":8662,"0.0":8663,"Klub":8664,"rad":8665,"##kar":8666,"##emm":8667,"schöne":8668,"gegenwär":8669,"##telligen":8670,"##ppt":8671,"ehe":8672,"##:49":8673,"##Ho":8674,"##jt":8675,"##kehren":8676,"##partement":8677,"gemeinschaft":8678,"##reif":8679,"Poly":8680,"Voraussetzungen":8681,"begeister":8682,"Link":8683,"wann":8684,"##ümmer":8685,"gegensei":8686,"##irt":8687,"christ":8688,"##aufrufe":8689,"still":8690,"Gebrauch":8691,"Front":8692,"Fehl":8693,"##gliedert":8694,"lo":8695,"wirkt":8696,"##echt":8697,"##mension":8698,"Wunder":8699,"Arg":8700,"Madrid":8701,"1966":8702,"teilnehmen":8703,"Aktionen":8704,"Katalog":8705,"##stoffen":8706,"scheiter":8707,"##üte":8708,"Flüchtlinge":8709,"##nitten":8710,"##IK":8711,"Geschwindigkeit":8712,"Scheiße":8713,"##%3":8714,"##immobili":8715,"Auge":8716,"Hom":8717,"Rekord":8718,"##bro":8719,"startete":8720,"##etts":8721,"Jon":8722,"##unnel":8723,"plötzlich":8724,"##Kreis":8725,"##bran":8726,"gesund":8727,"persönlich":8728,"Details":8729,"äuß":8730,"Neuen":8731,"oper":8732,"##GB":8733,"Vö":8734,"südlichen":8735,"how":8736,"Erg":8737,"Jagd":8738,"##cz":8739,"##pm":8740,"sorgt":8741,"Veränderung":8742,"Auseinander":8743,"##bahnhof":8744,"##alisiert":8745,"Laden":8746,"richtigen":8747,"wirkte":8748,"##TR":8749,"lautet":8750,"finanzielle":8751,"##bacher":8752,"Glob":8753,"Ägyp":8754,"reichen":8755,"##scha":8756,"140":8757,"8,":8758,"Wann":8759,"Tö":8760,"Funktionen":8761,"##anzer":8762,"##zell":8763,"angemessen":8764,"##ipe":8765,"##manns":8766,"2011,":8767,"##antin":8768,"##iale":8769,"Ausfuhr":8770,"Miner":8771,"Landtags":8772,"##qualität":8773,"train":8774,"##--":8775,"##österreich":8776,"verringer":8777,"dor":8778,"##endar":8779,"retten":8780,"Kass":8781,"##UNGEN":8782,"Ram":8783,"##quar":8784,"##kop":8785,"empfohlen":8786,"Hauses":8787,"##zesse":8788,"modern":8789,"Dol":8790,"Unterkunft":8791,"Netzwerk":8792,"Münchner":8793,"Vertrauen":8794,"dr":8795,"1961":8796,"##quote":8797,"höhere":8798,"##viel":8799,"##lim":8800,"##anke":8801,"verboten":8802,"##Sh":8803,"ausgetragen":8804,"##izierten":8805,"Anhang":8806,"Schmidt":8807,"aufgebaut":8808,"allgemeine":8809,"##MS":8810,"Prakti":8811,"Große":8812,"Gegend":8813,"(18":8814,"##ünde":8815,"gehabt":8816,"Daneben":8817,"wes":8818,"verstärkt":8819,"verschiedener":8820,"##fabrik":8821,"ant":8822,"Seiteaufrufe":8823,"char":8824,"gearbeitet":8825,"DF":8826,"##lu":8827,"Blatt":8828,"##riz":8829,"jene":8830,"(201":8831,"struktur":8832,"ließen":8833,"##vr":8834,"##:47":8835,"##hockey":8836,"gutes":8837,"beendet":8838,"veranst":8839,"##content":8840,"Zusätz":8841,"##iedlung":8842,"Barcelona":8843,"co":8844,"1963":8845,"besitzen":8846,"Minder":8847,"##barer":8848,"##......":8849,"##sti":8850,"Joined":8851,"##án":8852,"unseres":8853,"##alifornien":8854,"Sorge":8855,"Francis":8856,"##kontro":8857,"gebildet":8858,"höheren":8859,"##ket":8860,"##tal":8861,"Hi":8862,"##Produ":8863,"untersucht":8864,"##stär":8865,"Vielzahl":8866,"##äß":8867,"Elemente":8868,"##sprecher":8869,"##ela":8870,"##anner":8871,"##geräte":8872,"Weißt":8873,"verstanden":8874,"##verteid":8875,"Mön":8876,"os":8877,"Net":8878,"##familie":8879,"gleichnam":8880,"gefragt":8881,"Heer":8882,"Arbeitsplatz":8883,"TSV":8884,"##ronom":8885,"Matthias":8886,"Cre":8887,"Währungs":8888,"1962":8889,"Boot":8890,"echt":8891,"##achbar":8892,"zuständigen":8893,"##aufnahme":8894,"Defin":8895,"##schlagen":8896,"opti":8897,"##zeichneten":8898,"##IER":8899,"englischen":8900,"alleine":8901,"Donald":8902,"Eigenschaften":8903,"Warte":8904,"lebten":8905,"##spruchs":8906,"##Neu":8907,"##ernte":8908,"##hältnisse":8909,"##mn":8910,"##alem":8911,"Leiden":8912,"vorgestellt":8913,"##dienste":8914,"Gattung":8915,"Maler":8916,"erleich":8917,"##oppelt":8918,"95":8919,"lösen":8920,"##EB":8921,"##standen":8922,"##tiere":8923,"##ektar":8924,"Objekte":8925,"ermittelt":8926,"##Fr":8927,"anti":8928,"##gischen":8929,"##ütter":8930,"Landtag":8931,"erfolgen":8932,"mer":8933,"##mosphäre":8934,"Demokratie":8935,"Brüder":8936,"##wä":8937,"##bogen":8938,"Klinik":8939,"Systeme":8940,"verkaufen":8941,"Nachwuchs":8942,"Luf":8943,"ruhig":8944,"Hon":8945,"##tä":8946,"##service":8947,"angekünd":8948,"kämpfen":8949,"verbreitet":8950,"Engel":8951,"Quart":8952,"Lieder":8953,"Filme":8954,"Vereine":8955,"##tiven":8956,"Zin":8957,"Beihilfen":8958,"##spf":8959,"Wichtig":8960,"niemals":8961,"##mag":8962,"Aspekte":8963,"##ominiert":8964,"weite":8965,"##schnitts":8966,"##aussch":8967,"##lichem":8968,"##umin":8969,"##euert":8970,"Grä":8971,"##gh":8972,"Leicht":8973,"Automobil":8974,"##führungs":8975,"##tinu":8976,"##reide":8977,"erhielten":8978,"Gerät":8979,"Google":8980,"##Ro":8981,"dän":8982,"Breite":8983,"Schmer":8984,"Anhänger":8985,"Kompeten":8986,"##sprozess":8987,"Deleg":8988,"##fähig":8989,"ehren":8990,"Rollen":8991,"hart":8992,"beendete":8993,"erhältlich":8994,"##MU":8995,"Gemeinderat":8996,"##endeten":8997,"1948":8998,"etabl":8999,"Ingen":9000,"Betriebe":9001,"gelungen":9002,"Bri":9003,"Krankheit":9004,"Parkplatz":9005,"antw":9006,"##fle":9007,"##behörde":9008,"Steuern":9009,"anhand":9010,"Kamp":9011,"Krimin":9012,"KOM":9013,"##uro":9014,"Franken":9015,"##elbe":9016,"##gende":9017,"##äub":9018,"##/2014":9019,"##iano":9020,"müssten":9021,"diesmal":9022,"site":9023,"fährt":9024,"‚":9025,"falls":9026,"vermeiden":9027,"beru":9028,"Download":9029,"Well":9030,"Eindruck":9031,"##stab":9032,"Niederlage":9033,"Schriftsteller":9034,"1,5":9035,"Bol":9036,"##brauch":9037,"ABI":9038,"##stehenden":9039,"##ümm":9040,"-20%":9041,"Phys":9042,"Kombination":9043,"##instrum":9044,"##gestaltung":9045,"##Ko":9046,"Arn":9047,"Küste":9048,"endete":9049,"Polit":9050,"can":9051,"komplex":9052,"Marke":9053,"Niederlanden":9054,"Dortmund":9055,"##ati":9056,"##ologen":9057,"Wird":9058,"AB":9059,"##problem":9060,"##pool":9061,"Treffer":9062,"##echselt":9063,"##page":9064,"Objekt":9065,"Pause":9066,"##tist":9067,"religi":9068,"Kür":9069,"kan":9070,"##IB":9071,"heißen":9072,"Szene":9073,"##rät":9074,"Maße":9075,"##projekt":9076,"##56":9077,"1958":9078,"01.":9079,"Quer":9080,"Marken":9081,"Leid":9082,"bezüglich":9083,"Indien":9084,"##schloss":9085,"##rh":9086,"ee":9087,"##Programm":9088,"Patent":9089,"mögliche":9090,"##teilungen":9091,"zukünf":9092,"##jahres":9093,"##ween":9094,"voe":9095,"Finnland":9096,"##ammte":9097,"##etto":9098,"Adresse":9099,"##istent":9100,"Söhne":9101,"Ausgleich":9102,"vorgenommen":9103,"##würfe":9104,"##ugh":9105,"##weil":9106,"##mes":9107,"##preise":9108,"##igital":9109,"Atom":9110,"stimm":9111,"Ze":9112,"##let":9113,"##phan":9114,"Strukturen":9115,"wär":9116,"Ausschuss":9117,"betrieb":9118,"beschäd":9119,"##EIT":9120,"angep":9121,"##artig":9122,"meinte":9123,"##git":9124,"Allein":9125,"##antas":9126,"Verk":9127,"Obst":9128,"##azität":9129,"Konkurrenz":9130,"##deln":9131,"##dif":9132,"ries":9133,"1949":9134,"Beweis":9135,"##achim":9136,"Besatz":9137,"comp":9138,"Darm":9139,"##sky":9140,"##IA":9141,"Av":9142,"erbaut":9143,"Turn":9144,"Manager":9145,"Bio":9146,"Sor":9147,"##brand":9148,"bemü":9149,"Doktor":9150,"stabil":9151,"##tragt":9152,"Simon":9153,"##ject":9154,"Thür":9155,"News":9156,"##ordnet":9157,"Kandidaten":9158,"Namens":9159,"Rumän":9160,"##iction":9161,"gu":9162,"52":9163,"Status":9164,"1952":9165,"1956":9166,"##ouverne":9167,"##afé":9168,"Mathemat":9169,"Toten":9170,"dis":9171,"einzigar":9172,"solle":9173,"Blüten":9174,"##erd":9175,"##ji":9176,"##rein":9177,"##rinzip":9178,"veran":9179,"##arbeits":9180,"wodurch":9181,"Liber":9182,"Aussage":9183,"erzielt":9184,"Architekten":9185,"Philosophie":9186,"glücklich":9187,"Abt":9188,"forderte":9189,"##finanz":9190,"##Württemberg":9191,"##Team":9192,"Versch":9193,"##enzt":9194,"betreffenden":9195,"##inne":9196,"##opul":9197,"##Sti":9198,"Hub":9199,"Teufel":9200,"##bereiche":9201,"##rates":9202,"Willen":9203,"eingeladen":9204,"bar":9205,"##Haus":9206,"##rc":9207,"Worten":9208,"##entwick":9209,"vorstellen":9210,"##fügt":9211,"Rechn":9212,"##malen":9213,"##hofen":9214,"besucht":9215,"##kern":9216,"##Ph":9217,"##brü":9218,"##verläss":9219,"##hängig":9220,"är":9221,"berufen":9222,"Ressourcen":9223,"Künst":9224,"##bers":9225,"nied":9226,"Amerika":9227,"danke":9228,"versehen":9229,"schwere":9230,"##gendes":9231,"##DER":9232,"rum":9233,"##alender":9234,"##erte":9235,"Tätigkeiten":9236,"##örp":9237,"##ird":9238,"##bart":9239,"##elev":9240,"2020":9241,"BR":9242,"##bleiben":9243,"sitzt":9244,"##ographie":9245,"##stritten":9246,"##Sta":9247,"Merc":9248,"American":9249,"##arkt":9250,"steigt":9251,"erhöhen":9252,"Archiv":9253,"54":9254,"##teln":9255,"Cup":9256,"Konzentr":9257,"innov":9258,"vollen":9259,"arch":9260,"rot":9261,"##ündungs":9262,"##zeichnis":9263,"wirksam":9264,"Polizisten":9265,"erworben":9266,"##/01/17":9267,"Mem":9268,"Freiburg":9269,"Fast":9270,"Niveau":9271,"gelangen":9272,"##54":9273,"##sum":9274,"Unterschiede":9275,"Restaurants":9276,"##mess":9277,"selber":9278,"##kul":9279,"feiern":9280,"oberen":9281,"##62":9282,"freund":9283,"##entlich":9284,"1943":9285,"##üse":9286,"Besitzer":9287,"Entwicklungen":9288,"Nutzer":9289,"##zeption":9290,"Division":9291,"nannte":9292,"##immern":9293,"have":9294,"Liebl":9295,"##öffnete":9296,"Bestandteil":9297,"Block":9298,"wh":9299,"Dein":9300,"historische":9301,"Pier":9302,"Bisch":9303,"##ehren":9304,"##öss":9305,"##ktiver":9306,"Binnenmarkt":9307,"##iefen":9308,"##KT":9309,"Apartment":9310,"##................":9311,"##anzig":9312,"##astung":9313,"begleitet":9314,"Span":9315,"Poten":9316,"Plätze":9317,"längst":9318,"##weisung":9319,"##ELL":9320,"gewün":9321,"##kopf":9322,"Formel":9323,"1919":9324,"##horn":9325,"##attet":9326,"schlug":9327,"##atisch":9328,"lieben":9329,"sh":9330,"Verlust":9331,"##stuhl":9332,"Brasilien":9333,"Gestaltung":9334,"Zerst":9335,"Kölner":9336,"##gert":9337,"##leisten":9338,"##tretung":9339,"Elis":9340,"##MT":9341,"Center":9342,"Ski":9343,"51":9344,"soweit":9345,"##verbrauch":9346,"##gesetzten":9347,"Ehefrau":9348,"##aktionen":9349,"Balkon":9350,"Riesen":9351,"##ieter":9352,"hum":9353,"genehm":9354,"##ging":9355,"PS":9356,"Telek":9357,"2012,":9358,"##enten":9359,"##rucken":9360,"##ikationen":9361,"aufmerksam":9362,"Richtlinien":9363,"many":9364,"günstige":9365,"Fritz":9366,"##bindung":9367,"Single":9368,"##upp":9369,"Zentimeter":9370,"äußerst":9371,"Braun":9372,"##ray":9373,"abger":9374,"wirken":9375,"freiwill":9376,"Zustimmung":9377,"Kamera":9378,"Ähn":9379,"Klavier":9380,"Küsten":9381,"##auten":9382,"Führer":9383,"prüfen":9384,"##Cl":9385,"##ez":9386,"##feuer":9387,"Alpen":9388,"##ierend":9389,"Innovation":9390,"Kö":9391,"upd":9392,"##licherweise":9393,"Ank":9394,"##rö":9395,"Kul":9396,"##eland":9397,"Vorteil":9398,"##ique":9399,"geplanten":9400,"Verständnis":9401,"##/03/17":9402,"Meg":9403,"gro":9404,"##strafe":9405,"runter":9406,"##altete":9407,"starten":9408,"\"\"":9409,"umgeben":9410,"##platten":9411,"##äfts":9412,"belegt":9413,"pr":9414,"1941":9415,"Botschaft":9416,"##gesellschaften":9417,"##ozi":9418,"abgeb":9419,"##ais":9420,"Aussicht":9421,"Schreiben":9422,"dauern":9423,"Dienste":9424,"Verfassungs":9425,"##53":9426,"##krieges":9427,"1942":9428,"##/11":9429,"Horst":9430,"Begr":9431,"##oli":9432,"Instrument":9433,"getrennt":9434,"gestorben":9435,"älteren":9436,"traditionellen":9437,"Prag":9438,"1959":9439,"##lässlich":9440,"Clau":9441,"Beschäftigten":9442,"##gener":9443,"Nieders":9444,"##rete":9445,"Seg":9446,"##info":9447,"umge":9448,"Angebote":9449,"Brandenburg":9450,"Nar":9451,"Überra":9452,"jahr":9453,"##post":9454,"##ziehungsweise":9455,"##Mo":9456,"schönen":9457,"demokrat":9458,"##änner":9459,"Wasch":9460,"miss":9461,"##mäßige":9462,"Tennis":9463,"##elen":9464,"##amts":9465,"Islam":9466,"##uploads":9467,"moderne":9468,"Rod":9469,"Mittelpunkt":9470,"##aku":9471,"110":9472,"gekauft":9473,"wesentlichen":9474,"Gefangen":9475,"Tun":9476,"##gemeinden":9477,"##uste":9478,"vieler":9479,"Notwendigkeit":9480,"Hektar":9481,"##ova":9482,"Schützen":9483,"kenne":9484,"gerecht":9485,"##pend":9486,"Wahlen":9487,"Wohnungs":9488,"Bundesregierung":9489,"##59":9490,"##unterricht":9491,"Rudolf":9492,"##uert":9493,"##stücke":9494,"##ota":9495,"1918":9496,"##TSCH":9497,"##club":9498,"Ansatz":9499,"Mun":9500,"Publ":9501,"##wendungs":9502,"##züg":9503,"##ligisten":9504,"##fiz":9505,"Beratung":9506,"Jubil":9507,"staatlichen":9508,"zweiter":9509,"##behalten":9510,"Oster":9511,"##Straße":9512,"##grammen":9513,"Können":9514,"1957":9515,"##verkauf":9516,"andererseits":9517,"##owen":9518,"Wappen":9519,"erleben":9520,"Time":9521,"##irge":9522,"Platten":9523,"##hörige":9524,"##sichtig":9525,"##sprüche":9526,"##Par":9527,"CO":9528,"##Mann":9529,"trocken":9530,"HERR":9531,"##ridge":9532,"Kommen":9533,"getragen":9534,"##verständlich":9535,"North":9536,"Pen":9537,"number":9538,"##ütze":9539,"Zeug":9540,"##Vers":9541,"beziehungsweise":9542,"##wirklich":9543,"hef":9544,"170":9545,"Blau":9546,"bildete":9547,"Aben":9548,"##ights":9549,"##5-":9550,"Inf":9551,"Kim":9552,"##pat":9553,"Darlehen":9554,"häuf":9555,"wünschen":9556,"##La":9557,"##weiht":9558,"DIE":9559,"Grafen":9560,"vorne":9561,"BM":9562,"verfolgt":9563,"bezahlen":9564,"Senioren":9565,"orien":9566,"Rev":9567,"##Unter":9568,"##irektion":9569,"##schend":9570,"auftreten":9571,"SG":9572,"##ctu":9573,"beschreibt":9574,"##ervice":9575,"illeg":9576,"##sw":9577,"##sprechend":9578,"Harmon":9579,"##atische":9580,"2013,":9581,"verdient":9582,"##ärten":9583,"spanischen":9584,"##onenten":9585,"##istischer":9586,"Versicherungs":9587,"Nachmittag":9588,"##icker":9589,"bestimmter":9590,"France":9591,"Fürst":9592,"##mittlung":9593,"##angebot":9594,"erheblich":9595,"Methode":9596,"##><":9597,"unterscheiden":9598,"Schne":9599,"##ices":9600,"##sver":9601,"Müll":9602,"##okraten":9603,"Terrasse":9604,"endet":9605,"informiert":9606,"64":9607,"Kapelle":9608,"verteilt":9609,"##zahlung":9610,"##nl":9611,"##statter":9612,"Krieges":9613,"angelegt":9614,"leist":9615,"##TM":9616,"gestaltet":9617,"Angeles":9618,"gewöhn":9619,"##äudes":9620,"##He":9621,"verstehe":9622,"kap":9623,"##Stadt":9624,"Vereinbarung":9625,"Ermittlungen":9626,"nördlichen":9627,"##ometern":9628,"Maschine":9629,"##mod":9630,"##itness":9631,"Labor":9632,"Ärzte":9633,"##ido":9634,"##flügel":9635,"Saf":9636,"mitge":9637,"Umfeld":9638,"##Fi":9639,"##inform":9640,"ass":9641,"Umgang":9642,"geschehen":9643,"erwarb":9644,"Music":9645,"##team":9646,"Cat":9647,"##erven":9648,"port":9649,"##mach":9650,"genü":9651,"Bam":9652,"Lot":9653,"Arbeitslosen":9654,"##ichtung":9655,"##usch":9656,"aufgeführt":9657,"(')":9658,"Kriterien":9659,"Saal":9660,"Kenntnis":9661,"teils":9662,"Group":9663,"##direktor":9664,"##mäßigen":9665,"praktisch":9666,"jüngsten":9667,"Einheiten":9668,"Haltung":9669,"besetzt":9670,"##kreuz":9671,"##hängen":9672,"CH":9673,"Messer":9674,"##ifferenz":9675,"##hlt":9676,"##pal":9677,"Vorgehen":9678,"47":9679,"##vater":9680,"einfache":9681,"meines":9682,"##pekt":9683,"Tax":9684,"tat":9685,"##boden":9686,"##kal":9687,"berech":9688,"Subst":9689,"schließt":9690,"##rufen":9691,"Letzte":9692,"9,":9693,"hinten":9694,"House":9695,"##passen":9696,"Ufer":9697,"Sauer":9698,"##zwungen":9699,"strate":9700,"mach":9701,"##schirm":9702,"##Fin":9703,"abgest":9704,"ursprünglichen":9705,"Sowjetunion":9706,"erzählen":9707,"##ault":9708,"##ängerung":9709,"ri":9710,"’":9711,"Verfahrens":9712,"mei":9713,"##gebnisse":9714,"##ieb":9715,"ergänzt":9716,"Gib":9717,"Erb":9718,"##ione":9719,"##ppel":9720,"Carol":9721,"Entfernung":9722,"Schei":9723,"##geleitet":9724,"preuß":9725,"##lassung":9726,"attra":9727,"##ktivität":9728,"##lor":9729,"##57":9730,"Gebiets":9731,"##400":9732,"##spiegel":9733,"Victor":9734,"NR":9735,"bayer":9736,"beziehen":9737,"Qualifikation":9738,"##Pf":9739,"Entschließung":9740,"1953":9741,"Debüt":9742,"Zweifel":9743,"##riss":9744,"##leihen":9745,"Eins":9746,"Install":9747,"Jud":9748,"##ämpft":9749,"Krie":9750,"Betroffen":9751,"##ufs":9752,"##utin":9753,"##anteil":9754,"hundert":9755,"##reicher":9756,"##anstalt":9757,"Verbreitung":9758,"##/3":9759,"Bos":9760,"##-3":9761,"perfekt":9762,"##freiheit":9763,"Passag":9764,"alter":9765,"Statist":9766,"Finger":9767,"##stedt":9768,"Abstand":9769,"Einstellung":9770,"Wissenschaftler":9771,"Etwa":9772,"##nommen":9773,"##estern":9774,"between":9775,"Street":9776,"##empf":9777,"##reift":9778,"Bühnen":9779,"State":9780,"Ukraine":9781,"##bürgermeister":9782,"Posten":9783,"(5)":9784,"Mittler":9785,"##nh":9786,"##vg":9787,"auseinander":9788,"fühlen":9789,"eigener":9790,"frühere":9791,"##schön":9792,"##quenz":9793,"##orgungs":9794,"Schreib":9795,"Übernahme":9796,"EUROP":9797,"ten":9798,"##fahrzeuge":9799,"##Con":9800,"Exempl":9801,"Abitur":9802,"Brot":9803,"##ierer":9804,"##ACH":9805,"##chef":9806,"##ymbol":9807,"Anpassung":9808,"1955":9809,"##gebieten":9810,"Bernhard":9811,"##modell":9812,"entschied":9813,"bot":9814,"##ologisch":9815,"##wi":9816,"welchen":9817,"1947":9818,"##raucht":9819,"21,":9820,"mobil":9821,"Andr":9822,"Kalifornien":9823,"fahr":9824,"Übersetzung":9825,"##zeuger":9826,"##Pr":9827,"Bestimmung":9828,"Einnahmen":9829,"Glei":9830,"Zehn":9831,"SS":9832,"##Qu":9833,"Perspe":9834,"Ident":9835,"Verbindungen":9836,"§":9837,"##ekte":9838,"Angeklag":9839,"##indlich":9840,"##.2":9841,"##eme":9842,"Lande":9843,"##ußball":9844,"cal":9845,"##ffizienz":9846,"Beispiele":9847,"Kanzler":9848,"##igem":9849,"geschickt":9850,"12,":9851,"##ban":9852,"##gemäß":9853,"##phase":9854,"##aux":9855,"Festlegung":9856,"Gastgeber":9857,"geschlagen":9858,"Vorstands":9859,"einerseits":9860,"##ila":9861,"##yt":9862,"##oma":9863,"automatisch":9864,"Texte":9865,"##ABI":9866,"Event":9867,"##,...":9868,"Gipfel":9869,"offiziellen":9870,"##aud":9871,"##kö":9872,"sämtliche":9873,"Gerhard":9874,"##gab":9875,"##skon":9876,"##aker":9877,"##mord":9878,"1934":9879,"unterrich":9880,"Kais":9881,"##ship":9882,"Machine":9883,"Folgende":9884,"##iffen":9885,"##ahme":9886,"1954":9887,"##/08/16":9888,"Stimmung":9889,"positive":9890,"##Politik":9891,"##oker":9892,"Gehen":9893,"Modern":9894,"Betrag":9895,"diejenigen":9896,"##kshop":9897,"##usstsein":9898,"Neum":9899,"##temperatur":9900,"kleinere":9901,"umgesetzt":9902,"müsste":9903,"##etho":9904,"Landrat":9905,"15,":9906,"stärk":9907,"Tit":9908,"##altungs":9909,"Smart":9910,"##ques":9911,"53":9912,"##bund":9913,"##sbach":9914,"DLL":9915,"##ämpfe":9916,"SCH":9917,"##Im":9918,"##Um":9919,"Erschein":9920,"##vs":9921,"##üne":9922,"##Forts":9923,"##artigen":9924,"##ühungen":9925,"Flügel":9926,"##schten":9927,"##achter":9928,"##onien":9929,"politisch":9930,"Motiv":9931,"Krise":9932,"Zuständ":9933,"##umenten":9934,"Ban":9935,"##schwer":9936,"Anstieg":9937,"->":9938,"##ärt":9939,"Gust":9940,"sowjet":9941,"stellten":9942,"gefördert":9943,"erled":9944,"bedeutend":9945,"##Mon":9946,"Stadion":9947,"##position":9948,"Eishockey":9949,"Gegenstand":9950,"##rest":9951,"Vorstellung":9952,"zugelassen":9953,"##uchst":9954,"Durchschnitt":9955,"##ites":9956,"seitdem":9957,"Gri":9958,"Nationalsozial":9959,"Sieben":9960,"##ränkungen":9961,"Konflikt":9962,"##onym":9963,"Syrien":9964,"offensichtlich":9965,"Emil":9966,"Beste":9967,"spezial":9968,"Technologien":9969,"##img":9970,"##beu":9971,"Kle":9972,"##owakei":9973,"##yk":9974,"Fabrik":9975,"Führungs":9976,"Göt":9977,"##ätigte":9978,"##Fahr":9979,"Out":9980,"##Di":9981,"durchschnitt":9982,"##histor":9983,"##Aut":9984,"Regierungen":9985,"Erzähl":9986,"##acken":9987,"Internationale":9988,"##cyclop":9989,"Gerade":9990,"Siedlung":9991,"Serien":9992,"po":9993,"##erz":9994,"leiden":9995,"Zit":9996,"##beam":9997,"##ieht":9998,"Kommentare":9999,"##ktions":10000,"##/2013":10001,"##zert":10002,"##steten":10003,"Eurostat":10004,"gehol":10005,"Seele":10006,"Atmosphäre":10007,"##straßen":10008,"##Dollar":10009,"betroffenen":10010,"glaubt":10011,"spezielle":10012,"Altstadt":10013,"March":10014,"##änderte":10015,"##Th":10016,"##uj":10017,"schlägt":10018,"##bilden":10019,"¡":10020,"Übergang":10021,"Durchmesser":10022,"bezieht":10023,"##gerät":10024,"Henry":10025,"##lieder":10026,"Textil":10027,"Großteil":10028,"##sbed":10029,"Gründer":10030,"Donau":10031,"WLAN":10032,"Spur":10033,"##metho":10034,"Pots":10035,"Tausende":10036,"Eier":10037,"Heidel":10038,"Alfred":10039,"gleicher":10040,"Sanierung":10041,"Kontroll":10042,"Orten":10043,"poten":10044,"vielfäl":10045,"##sive":10046,"##ero":10047,"Line":10048,"Erwart":10049,"Eigentümer":10050,"1900":10051,"##korea":10052,"verlegt":10053,"Elisabeth":10054,"##icro":10055,"Herkunft":10056,"intensiv":10057,"Roten":10058,"##welle":10059,"Letzter":10060,"##dlich":10061,"Normal":10062,"Dampf":10063,"erforderlichen":10064,"14,":10065,"##FL":10066,"##born":10067,"Errichtung":10068,"##ieger":10069,"gesperrt":10070,"##zenten":10071,"##eignet":10072,"##kin":10073,"1936":10074,"geg":10075,"Kräfte":10076,"sorgte":10077,"56":10078,"ums":10079,"##einheiten":10080,"grundsätzlich":10081,"Straß":10082,"Ess":10083,"gaben":10084,"identif":10085,"geschafft":10086,"##ideo":10087,"ned":10088,"##mü":10089,"##älter":10090,"Schneider":10091,"Versorgung":10092,"##mittler":10093,"##PS":10094,"Trag":10095,"##lay":10096,"Lit":10097,"Südwesten":10098,"##becken":10099,"Geschäfte":10100,"regionale":10101,"##-2":10102,"Amster":10103,"##BN":10104,"Produkten":10105,"##fleisch":10106,"##ohne":10107,"##zentren":10108,"Has":10109,"##Westfalen":10110,"##gro":10111,"jener":10112,"Figuren":10113,"##hers":10114,"Wit":10115,"##tial":10116,"Marie":10117,"Protest":10118,"##ves":10119,"derzei":10120,"Vielfalt":10121,"Il":10122,"warst":10123,"##landes":10124,"laufenden":10125,"parallel":10126,"Kreu":10127,"freie":10128,"##ript":10129,"ausreichend":10130,"##keln":10131,"King":10132,"Mittelalter":10133,"##verd":10134,"##brig":10135,"rie":10136,"20,":10137,"##san":10138,"Schauspielerin":10139,"Verw":10140,"##äb":10141,"##recken":10142,"Christus":10143,"Location":10144,"ähnliche":10145,"Forum":10146,"##üre":10147,"##ätestens":10148,"Motto":10149,"##idar":10150,"verbessert":10151,"##ueller":10152,"Pferde":10153,"Luc":10154,"rechte":10155,"drauf":10156,"darstellen":10157,"rü":10158,"zurückzu":10159,"definiert":10160,"Heinz":10161,"##oslaw":10162,"ungewöhn":10163,"##strom":10164,"Halte":10165,"Programms":10166,"##lied":10167,"Ral":10168,"##schu":10169,"jo":10170,"Tirol":10171,"event":10172,"Ulrich":10173,"16,":10174,"##ualisierung":10175,"Spenden":10176,"bezeichnete":10177,"Nutzen":10178,"Fortschritte":10179,"##rock":10180,"##beauftrag":10181,"Faktoren":10182,"sl":10183,"Bundesstaat":10184,"Sem":10185,"Business":10186,"(20":10187,"Museums":10188,"stolz":10189,"Such":10190,"regul":10191,"OK":10192,"orden":10193,"Nordosten":10194,"wichtigste":10195,"Lange":10196,"##nimmt":10197,"##Süd":10198,"##einsatz":10199,"Barbar":10200,"räum":10201,"jemanden":10202,"##stad":10203,"##agentur":10204,"Erfolge":10205,"##sä":10206,"##ehlung":10207,"##worfen":10208,"späten":10209,"##irl":10210,"##51":10211,"##setzte":10212,"beinhal":10213,"persönliche":10214,"beitragen":10215,"##esa":10216,"##etik":10217,"Schwimm":10218,"##organ":10219,"ausführ":10220,"gesucht":10221,"Bilanz":10222,"##geordnet":10223,"geraten":10224,"##sicherheit":10225,"##Geb":10226,"##bit":10227,"Willst":10228,"Schnee":10229,"real":10230,"Kä":10231,"##zene":10232,"EM":10233,"##chern":10234,"##Staaten":10235,"Hill":10236,"verbindet":10237,"##Gem":10238,"Verfassung":10239,"mäch":10240,"DVD":10241,"übernimmt":10242,"liefern":10243,"Ebenso":10244,"benutzen":10245,"##Ad":10246,"Gesell":10247,"##ilian":10248,"##eise":10249,"benachbar":10250,"Mary":10251,"Royal":10252,"niedriger":10253,"Trainings":10254,"##reien":10255,"gefällt":10256,"gewährt":10257,"jur":10258,"Antworten":10259,"gelegenen":10260,"vorbereitet":10261,"körper":10262,"1951":10263,"##ras":10264,"Anges":10265,"weisen":10266,"Neuer":10267,"Fürsten":10268,"Lib":10269,"##iertes":10270,"klassischen":10271,"Stephan":10272,"ausgeschlossen":10273,"##cyclopedia":10274,"katholischen":10275,"11,":10276,"BIP":10277,"##viertel":10278,"##klärt":10279,"Bekämpfung":10280,"Interess":10281,"Geschichten":10282,"Tode":10283,"##ofer":10284,"Ferner":10285,"Bulgar":10286,"mittleren":10287,"Brutt":10288,"zentralen":10289,"##organisationen":10290,"22,":10291,"Lehre":10292,"dringend":10293,"Wiederauf":10294,"Record":10295,"Figur":10296,"Joachim":10297,"##stimmung":10298,"Behörde":10299,"·":10300,"##herren":10301,"gewisse":10302,"entlassen":10303,"##chan":10304,"Brust":10305,"##brechen":10306,"700":10307,"gemel":10308,"##werden":10309,"Horn":10310,"##arriere":10311,"##blätter":10312,"Weltkriegs":10313,"##Lin":10314,"Schäden":10315,"Erhebung":10316,"frem":10317,"Schluß":10318,"leichter":10319,"Uni":10320,"Gewässer":10321,"##bedarf":10322,"Preisen":10323,"##stunden":10324,"##phen":10325,"Armen":10326,"Touristen":10327,"##asi":10328,"Chemie":10329,"##ückt":10330,"Berichte":10331,"kritisiert":10332,"weshalb":10333,"Hochzeit":10334,"##Hol":10335,"Tob":10336,"##hfo":10337,"abges":10338,"##klei":10339,"Million":10340,"##chron":10341,"wechseln":10342,"##produkte":10343,"(8":10344,"Rab":10345,"vorüber":10346,"##gau":10347,"Gymnasium":10348,"##ugend":10349,"kombin":10350,"##CDU":10351,"Maßnahme":10352,"Gespräche":10353,"##öck":10354,"Hochschul":10355,"Opposition":10356,"leitet":10357,"ohn":10358,"##ehend":10359,"Auflösung":10360,"Jedes":10361,"Journalisten":10362,"##ommern":10363,"jedenfalls":10364,"##systems":10365,"Staates":10366,"beobachtet":10367,"##ids":10368,"Ahnung":10369,"zugänglich":10370,"Schuss":10371,"endgültig":10372,"Hell":10373,"Zusätzlich":10374,"08.":10375,"##ners":10376,"##ächsischen":10377,"##cer":10378,"welchem":10379,"##besitz":10380,"Fähigkeiten":10381,"Herausforderung":10382,"Forscher":10383,"##ahe":10384,"Appar":10385,"Lig":10386,"lock":10387,"##lefon":10388,"##sieht":10389,"umstritten":10390,"##älde":10391,"Allgemeine":10392,"##Zeit":10393,"Santa":10394,"Sound":10395,"Weltmeister":10396,"griechischen":10397,"gren":10398,"##schrank":10399,"handeln":10400,"abhängig":10401,"passieren":10402,"##größe":10403,"##erto":10404,"##col":10405,"infolge":10406,"\"„":10407,"zentrale":10408,"##fällt":10409,"##platte":10410,"##52":10411,"##MEN":10412,"Krist":10413,"gros":10414,"durfte":10415,"Löwen":10416,"##lebnis":10417,"##spartei":10418,"direkten":10419,"eindeutig":10420,"##kräften":10421,"Rumänien":10422,"Ausstattung":10423,"##-19":10424,"##-200":10425,"Bäume":10426,"letztlich":10427,"##urteilung":10428,"beantwor":10429,"##IF":10430,"##ämpfer":10431,"##znei":10432,"Gesetzes":10433,"##cess":10434,"Trotzdem":10435,"gestiegen":10436,"kümmer":10437,"1929":10438,"rasch":10439,"07.":10440,"Bibliothek":10441,"Mainz":10442,"Cop":10443,"publ":10444,"Universitäten":10445,"##artikel":10446,"1937":10447,"Badezimmer":10448,"##EP":10449,"##sr":10450,"italienische":10451,"beobachten":10452,"##Ober":10453,"1914":10454,"Coun":10455,"Symbol":10456,"gefordert":10457,"fa":10458,"##heil":10459,"gewährleisten":10460,"Dienstleistungs":10461,"Fab":10462,"##Min":10463,"##Preis":10464,"##häusern":10465,"##deutschland":10466,"Waffe":10467,"Muster":10468,"##ctually":10469,"Camping":10470,"1935":10471,"Wart":10472,"Bedien":10473,"Mitarbeitern":10474,"##schöpf":10475,"ol":10476,"Geht":10477,"##spräsident":10478,"##hause":10479,"Jed":10480,"##geblich":10481,"dauert":10482,"##bm":10483,"##händler":10484,"Freunden":10485,"gül":10486,"##urnier":10487,"##tretern":10488,"##deckung":10489,"##/12/16":10490,"ferner":10491,"##100":10492,"##hardt":10493,"Nikol":10494,"Tank":10495,"direkte":10496,"sauber":10497,"Kohlen":10498,"##druckt":10499,"analys":10500,"ök":10501,"59":10502,"hell":10503,"##sey":10504,"Erhöhung":10505,"Ortschaft":10506,"##einträch":10507,"##sf":10508,"Weißen":10509,"##ECH":10510,"fließt":10511,"##prom":10512,"##beginn":10513,"Département":10514,"##bahnen":10515,"##ürzt":10516,"##sta":10517,"##grenz":10518,"teilen":10519,"updated":10520,"##mie":10521,"Lust":10522,"Diplom":10523,"Que":10524,"##ßig":10525,"Lokal":10526,"bloß":10527,"##.3":10528,"##einhalb":10529,"unteren":10530,"##encyclopedia":10531,"spielten":10532,"Kapitän":10533,"nde":10534,"(+":10535,"Wurzel":10536,"##kolle":10537,"##02":10538,"effe":10539,"actually":10540,"##cience":10541,"freut":10542,"ausgeführt":10543,"##ypen":10544,"Erinnerung":10545,"##illon":10546,"##ska":10547,"##reb":10548,"Sy":10549,"diskutiert":10550,"##ize":10551,"##ieds":10552,"darstellt":10553,"##kunden":10554,"##ding":10555,"##marsch":10556,"Schritte":10557,"empfehlen":10558,"-10":10559,"EIN":10560,"Ergän":10561,"Big":10562,"nei":10563,"##linder":10564,"”":10565,"##stil":10566,"##Mitglied":10567,"schlagen":10568,"Berech":10569,"##Nr":10570,"beruflichen":10571,"##schech":10572,"##ücksichtigung":10573,"##aka":10574,"Wesent":10575,"passt":10576,"##schreiten":10577,"##dh":10578,"zit":10579,"Edel":10580,"Sig":10581,"FDP":10582,"Kommunal":10583,"99":10584,"Arbeitsplätze":10585,"Anbieter":10586,"Aachen":10587,"1928":10588,"Zy":10589,"##ordnungen":10590,"maps":10591,"##Ent":10592,"##prof":10593,"Kath":10594,"Klage":10595,"##wes":10596,"Freien":10597,"staatliche":10598,"##unschwei":10599,"hört":10600,"##At":10601,"pe":10602,"Marketing":10603,"Ägypten":10604,"Kathol":10605,"grundlegen":10606,"##gebnis":10607,"##übt":10608,"Analy":10609,"##ilien":10610,"Wach":10611,"##SPD":10612,"##örungen":10613,"##BC":10614,"##ror":10615,"Oberst":10616,"Tick":10617,"##sprachigen":10618,"##zeugnissen":10619,"Theorie":10620,"Pfar":10621,"##tran":10622,"##menge":10623,"gegebenen":10624,"Ebenfalls":10625,"amerikanische":10626,"angekündigt":10627,"##onie":10628,"##genöss":10629,"##läufer":10630,"##gekommen":10631,"erlebt":10632,"Prote":10633,"Vit":10634,"57":10635,"Vik":10636,"##ommerzie":10637,"Songs":10638,"beige":10639,"Rub":10640,"Regensburg":10641,"##All":10642,"##tax":10643,"inklusive":10644,"04.":10645,"beschäftig":10646,"Spuren":10647,"hoffen":10648,"##okus":10649,"natur":10650,"92":10651,"##rain":10652,"##lieger":10653,"##porte":10654,"maximal":10655,"##akteur":10656,"##bc":10657,"##lenburg":10658,"jüdischen":10659,"##oz":10660,"Marine":10661,"Wärme":10662,"##schlägen":10663,"Fassung":10664,"Mitteln":10665,"##verbandes":10666,"##New":10667,"eure":10668,"Nordrhein":10669,"Armut":10670,"##lexib":10671,"Chic":10672,"##gehör":10673,"Transfer":10674,"##ührt":10675,"Ron":10676,"##EICH":10677,"Weihnachten":10678,"phys":10679,"anger":10680,"Ursache":10681,"Ell":10682,"Verwand":10683,"Gemüse":10684,"Ereignisse":10685,"mitten":10686,"##bell":10687,"Elektron":10688,"##gegangen":10689,"##zelt":10690,"bestehende":10691,"##iedelt":10692,"Cy":10693,"Nick":10694,"##AA":10695,"##weiler":10696,"Saudi":10697,"##ialen":10698,"Jens":10699,"Angela":10700,"Basel":10701,"Schatten":10702,"aufgelöst":10703,"##kommission":10704,"##groß":10705,"States":10706,"nehme":10707,"Ensem":10708,"##aria":10709,"##]=":10710,"##Su":10711,"Jahrzehnten":10712,"Bass":10713,"Verg":10714,"Frankfurter":10715,"##lse":10716,"##usalem":10717,"2014,":10718,"##ringe":10719,"Abwehr":10720,"##fahrzeug":10721,"##ümmern":10722,"##gelegen":10723,"##anträge":10724,"Bob":10725,"##ritor":10726,"russische":10727,"Konflik":10728,"fordern":10729,"Problemen":10730,"English":10731,"##witz":10732,"##Kommission":10733,"##Nach":10734,"calendar":10735,"##ummern":10736,"begeg":10737,"##ofs":10738,"älteste":10739,"angeschlossen":10740,"##nor":10741,"Vorbild":10742,"Wende":10743,"Verteidigung":10744,"##anzeigen":10745,"Anwalt":10746,"Materialien":10747,"Ah":10748,"gefeiert":10749,"72":10750,"edn":10751,"##genden":10752,"Angelegenheiten":10753,"##füllt":10754,"Mittag":10755,"kurzer":10756,"##quellen":10757,"Friedens":10758,"##ella":10759,"Rohr":10760,"ac":10761,"hochwer":10762,"##58":10763,"##portal":10764,"##Wer":10765,"##eihe":10766,"Twitter":10767,"##ätigung":10768,"kostet":10769,"##Über":10770,"##amerikanische":10771,"fung":10772,"##gelände":10773,"Höhepunkt":10774,"Lassen":10775,"ye":10776,"lagen":10777,"Mengen":10778,"##field":10779,"##schäd":10780,"krank":10781,"erstreckt":10782,"Übereinkommen":10783,"##olen":10784,"menschlichen":10785,"craw":10786,"##edition":10787,"Wachstums":10788,"##eißen":10789,"##usse":10790,"##mauer":10791,"Satell":10792,"Insbesondere":10793,"Gemeinsamen":10794,"##merk":10795,"angen":10796,"Green":10797,"##schicht":10798,"Allgemeinen":10799,"##ador":10800,"demnach":10801,"anerkannt":10802,"##otion":10803,"Wayback":10804,"##pflege":10805,"Yo":10806,"##ehle":10807,"##tinuier":10808,"natürlichen":10809,"Spiegel":10810,"crawled":10811,"geplan":10812,"##ällig":10813,"Freiwill":10814,"achten":10815,"Auflage":10816,"##sd":10817,"part":10818,"##/06":10819,"##isl":10820,"##folgenden":10821,"Warenk":10822,"Instrumente":10823,"##egt":10824,"Abstieg":10825,"Naz":10826,"Bein":10827,"Nordwesten":10828,"##schrau":10829,"##keptic":10830,"DES":10831,"##ugoslaw":10832,"deswegen":10833,"##ée":10834,"Kok":10835,"konst":10836,"Verpflichtungen":10837,"Elf":10838,"wächst":10839,"startet":10840,"##thm":10841,"##motor":10842,"IC":10843,"Existenz":10844,"Getreide":10845,"Kohl":10846,"##ario":10847,"Räume":10848,"gleichnamigen":10849,"Leuten":10850,"spann":10851,"kümmern":10852,"Chin":10853,"optim":10854,"##spartner":10855,"dne":10856,"##ündnis":10857,"Anlass":10858,"##esp":10859,"sc":10860,"##zepte":10861,"bestimmen":10862,"Element":10863,"Gefü":10864,"Mietwagen":10865,"schlimm":10866,"Box":10867,"Fro":10868,"Konsequ":10869,"Forderungen":10870,"Premiere":10871,"Harry":10872,"##sthe":10873,"##sberg":10874,"##hten":10875,"Ding":10876,"##odor":10877,"October":10878,"##oßen":10879,"##sens":10880,"Rent":10881,"##Sieg":10882,"manche":10883,"##reihe":10884,"##Me":10885,"##oppen":10886,"##ürmer":10887,"geschützt":10888,"kräf":10889,"its":10890,"Strei":10891,"##owa":10892,"##medaille":10893,"Amsterdam":10894,"Mä":10895,"Königin":10896,"##büro":10897,"##orenz":10898,"Pir":10899,"##ietung":10900,"behalten":10901,"##Europ":10902,"##öre":10903,"##bestand":10904,"##osa":10905,"Kost":10906,"66":10907,"##geschwindigkeit":10908,"bill":10909,"ehrenamt":10910,"Verlängerung":10911,"KMU":10912,"##ituationen":10913,"Diet":10914,"##fm":10915,"gefährlich":10916,"Ry":10917,"##.1":10918,"■":10919,"##freie":10920,"##undet":10921,"sofern":10922,"##asp":10923,"Liv":10924,"Golden":10925,"Eintritt":10926,"Eigentlich":10927,"##täu":10928,"Lernen":10929,"kanad":10930,"Südosten":10931,"3-":10932,"##Bet":10933,"Verpflichtung":10934,"1925":10935,"froh":10936,"Jede":10937,"##bücher":10938,"Edu":10939,"##rint":10940,"Seehofer":10941,"Vereinigung":10942,"##hauer":10943,"##pre":10944,"existiert":10945,"##III":10946,"##ilität":10947,"vari":10948,"##ütten":10949,"Quartal":10950,"Überwachung":10951,"informieren":10952,"Temperaturen":10953,"Assoc":10954,"25,":10955,"##polizei":10956,"##isser":10957,"Weiteren":10958,"##ministerin":10959,"##wann":10960,"Plast":10961,"##ülern":10962,"##UT":10963,"Asien":10964,"Anders":10965,"Deine":10966,"Definition":10967,"How":10968,"app":10969,"Modelle":10970,"Verletzungen":10971,"##wein":10972,"##thur":10973,"Niemand":10974,"enger":10975,"bezahlt":10976,"sichern":10977,"##holung":10978,"##EF":10979,"##demokrat":10980,"##cent":10981,"Schach":10982,"Ing":10983,"##krise":10984,"##fels":10985,"##äden":10986,"Thu":10987,"Feier":10988,"besseren":10989,"zusätzlichen":10990,"Gouverne":10991,"verrückt":10992,"Bemühungen":10993,"weißen":10994,"##EST":10995,"##skeptic":10996,"##gy":10997,"offizielle":10998,"##ilde":10999,"##alo":11000,"Hals":11001,"Gründungs":11002,"Hallen":11003,"##iation":11004,"##ehlungen":11005,"Prinz":11006,"Stift":11007,"Hunde":11008,"Berater":11009,"dok":11010,"##Am":11011,"##streit":11012,"sign":11013,"##schreiben":11014,"##ple":11015,"Mechan":11016,"##schnittlich":11017,"##länge":11018,"Handball":11019,"übrigens":11020,"Dieter":11021,"Renten":11022,"aktiven":11023,"Abbildung":11024,"Rh":11025,"Kommt":11026,"Vizep":11027,"Werbung":11028,"##indungs":11029,"Beton":11030,"Funk":11031,"Leder":11032,"Niedersachsen":11033,"Betracht":11034,"Heb":11035,"##spannung":11036,"##ão":11037,"Ecke":11038,"Mama":11039,"##roht":11040,"##iene":11041,"unterst":11042,"Aufsichts":11043,"##ktieren":11044,"##mine":11045,"##lar":11046,"##keten":11047,"erfolgreichen":11048,"verstorben":11049,"Überblick":11050,"##dreht":11051,"überzeugen":11052,"Wesen":11053,"sichtbar":11054,"Onkel":11055,"ältere":11056,"Weib":11057,"Py":11058,"Kurt":11059,"##iety":11060,"eb":11061,"##genossen":11062,"angewand":11063,"##osta":11064,"begrenzt":11065,"##halter":11066,"Mini":11067,"Bell":11068,"##ettel":11069,"##sdorf":11070,"##wanderung":11071,"fünften":11072,"Bin":11073,"##atom":11074,"Weber":11075,"##sprachen":11076,"Landschafts":11077,"Ri":11078,"absolut":11079,"gegründeten":11080,"##ammern":11081,"##morgen":11082,"anf":11083,"##oler":11084,"Fan":11085,"Kompl":11086,"##klang":11087,"Kino":11088,"Bevor":11089,"Rückgang":11090,"##ladung":11091,"##träge":11092,"Athen":11093,"schicken":11094,"Haushalte":11095,"Orchester":11096,"##ianischen":11097,"##uminium":11098,"##mith":11099,"Champions":11100,"Oliver":11101,"##ogan":11102,"finanziell":11103,"Argentin":11104,"##kette":11105,"Latein":11106,"##ating":11107,"##griff":11108,"lebend":11109,"Wün":11110,"Kontakte":11111,"bitten":11112,"umben":11113,"##kete":11114,"She":11115,"beherr":11116,"rechnen":11117,"wohnen":11118,"Warenkorb":11119,"altern":11120,"##sphase":11121,"unterhalb":11122,"eu":11123,"฀":11124,"Disziplin":11125,"Grundsatz":11126,"13,":11127,"##küste":11128,"##ardo":11129,"halt":11130,"Diesen":11131,"##alit":11132,"Summe":11133,"Amtszeit":11134,"##/4":11135,"Tipp":11136,"Ablauf":11137,"Ministerium":11138,"Repar":11139,"Fakult":11140,"##kandid":11141,"##antie":11142,"Operation":11143,"einfachen":11144,"Frist":11145,"verlangt":11146,"Kroat":11147,"fürs":11148,"Entsteh":11149,"Kabin":11150,"Griff":11151,"##mond":11152,"Oberfläche":11153,"Inhalte":11154,"##heute":11155,"Anne":11156,"golden":11157,"East":11158,"Arab":11159,"verabschiedet":11160,"Wohnzimmer":11161,"Individ":11162,"##alscience":11163,"problem":11164,"##gische":11165,"Company":11166,"##skepticalscience":11167,"##ilber":11168,"vorgesehenen":11169,"##äumt":11170,"Alli":11171,"Leser":11172,"##fal":11173,"Religion":11174,"##gefunden":11175,"##riften":11176,"##comm":11177,"Rechnungs":11178,"Umweltschutz":11179,"##utnant":11180,"Handy":11181,"-10%":11182,"##Techn":11183,"##mil":11184,"1932":11185,"Wähler":11186,"Europameister":11187,"Stärke":11188,"SE":11189,"Stan":11190,"Südafrika":11191,"Sender":11192,"##offiz":11193,"Abkommens":11194,"Aussagen":11195,"##rechnung":11196,"##cons":11197,"langer":11198,"schen":11199,"abgegeben":11200,"Bruch":11201,"Schleswig":11202,"gebeten":11203,"Menschenrechte":11204,"Braunschwei":11205,"finanziert":11206,"Berge":11207,"chinesischen":11208,"1924":11209,"##mühle":11210,"hinweg":11211,"Basket":11212,"Marien":11213,"1927":11214,"basiert":11215,"##gesprä":11216,"##/19":11217,"##igner":11218,"mod":11219,"##fahrten":11220,"ago":11221,"##FC":11222,"Schild":11223,"##arina":11224,"European":11225,"schlechte":11226,"Adam":11227,"Medik":11228,"##ödie":11229,"##atch":11230,"Bauer":11231,"durchge":11232,"beteiligten":11233,"Media":11234,"##/18":11235,"DFB":11236,"Schlei":11237,"Institute":11238,"96":11239,"##Innen":11240,"Ortes":11241,"Grem":11242,"Staatsb":11243,"voran":11244,"Lizenz":11245,"Zwecke":11246,"##ypages":11247,"Dur":11248,"##behörden":11249,"Kabel":11250,"holte":11251,"beraten":11252,"Kel":11253,"##einigt":11254,"27,":11255,"Rauch":11256,"reduziert":11257,"##gast":11258,"2,5":11259,"Gesang":11260,"wies":11261,"##sonsten":11262,"##-)":11263,"##kriegs":11264,"##lück":11265,"##plos":11266,"Ursprün":11267,"Geburts":11268,"##Projekt":11269,"Sche":11270,"##wid":11271,"kleineren":11272,"Saved":11273,"##ehin":11274,"Rats":11275,"Hinsicht":11276,"##beteil":11277,"Herbert":11278,"zogen":11279,"Lag":11280,"##iro":11281,"Unabhängigkeit":11282,"Tempel":11283,"Anwendungen":11284,"##wettbewerb":11285,"japanischen":11286,"##bilanz":11287,"##ativer":11288,"28,":11289,"genannte":11290,"Dokumente":11291,"Jäger":11292,"überprü":11293,"geplante":11294,"Jerusalem":11295,"Erkrank":11296,"liefer":11297,"##splatz":11298,"%)":11299,"##pass":11300,"Adolf":11301,"Gramm":11302,"davor":11303,"super":11304,"Einfl":11305,"Händen":11306,"##hab":11307,"##és":11308,"##eng":11309,"Schulden":11310,"##ianer":11311,"berufliche":11312,"höchst":11313,"##austausch":11314,"1:0":11315,"trinken":11316,"bewegt":11317,"Signal":11318,"##05":11319,"pri":11320,"##pra":11321,"Att":11322,"##/5":11323,"##App":11324,"##fass":11325,"1910":11326,"keines":11327,"Helmut":11328,"Films":11329,"Absicht":11330,"Bogen":11331,"breiten":11332,"##sbruck":11333,"##gier":11334,"Mid":11335,"Cam":11336,"gewal":11337,"##initi":11338,"Sprech":11339,"Empfehlung":11340,"AKP":11341,"##tec":11342,"##schnitte":11343,"rief":11344,"bundes":11345,"##luss":11346,"Koll":11347,"##jan":11348,"##uns":11349,"Aufnahmen":11350,"##tainer":11351,"Reh":11352,"Verschieden":11353,"Ve":11354,"##äufe":11355,"##Trainer":11356,"Date":11357,"mul":11358,"Alltag":11359,"Texas":11360,"übergeben":11361,"Aussprache":11362,"Rap":11363,"##fahrts":11364,"##ausstellung":11365,"Ehem":11366,"erlassen":11367,"stre":11368,"Projekten":11369,"begeistert":11370,"##KW":11371,"Sn":11372,"##oland":11373,"tatsäch":11374,"##ious":11375,"June":11376,"##verbot":11377,"Neues":11378,"##trieben":11379,"Fremd":11380,"Tau":11381,"kontinuier":11382,"##isation":11383,"Züge":11384,"ES":11385,"Umbau":11386,"31.12.":11387,"##lieb":11388,"##jew":11389,"##Ur":11390,"zeigten":11391,"Verarbeitung":11392,"##liehen":11393,"##nacht":11394,"##spitze":11395,"Alternative":11396,"4-":11397,"Vorsitz":11398,"Michel":11399,"##/02/17":11400,"Beck":11401,"separ":11402,"##ungsver":11403,"örtlichen":11404,"##lebte":11405,"##spur":11406,"Forts":11407,"VW":11408,"Verschw":11409,"mehrerer":11410,"##chtet":11411,"nominiert":11412,"##emp":11413,"##entin":11414,"##version":11415,"station":11416,"Initiativen":11417,"##terne":11418,"dest":11419,"##Med":11420,"polnischen":11421,"##range":11422,"(6)":11423,"Magde":11424,"##sson":11425,"vorhandenen":11426,"Past":11427,"##oter":11428,"Beihilfe":11429,"wartet":11430,"Patrick":11431,"Mari":11432,"Kommand":11433,"Malt":11434,"##bein":11435,"schafft":11436,"Schieds":11437,"Vielen":11438,"Mike":11439,"Präsidentin":11440,"Videos":11441,"Bernd":11442,"Werken":11443,"##eman":11444,"erlang":11445,"Option":11446,"##fällig":11447,"Umständen":11448,"jeg":11449,"##wohnungen":11450,"##Chr":11451,"##kamp":11452,"##itation":11453,"ermor":11454,"Abb":11455,"##örg":11456,"##gst":11457,"EW":11458,"wirk":11459,"Ox":11460,"##6;":11461,"##riel":11462,"Gefahren":11463,"Dusche":11464,"views":11465,"##vorsitzender":11466,"##berat":11467,"##folgung":11468,"ISBN":11469,"Bronze":11470,"unmöglich":11471,"feierte":11472,"sk":11473,"Vorsitzenden":11474,"führenden":11475,"##gliederung":11476,"Wellen":11477,"notwendigen":11478,"begannen":11479,"##word":11480,"denkt":11481,"melden":11482,"gefl":11483,"untergebracht":11484,"Registr":11485,"Tok":11486,"Schal":11487,"wiederholt":11488,"Würz":11489,"##freien":11490,"östlichen":11491,"##bö":11492,"versteht":11493,"##üstet":11494,"##betrag":11495,"platz":11496,"Nat":11497,"ausgesch":11498,"##atorium":11499,"61":11500,"##äuden":11501,"Chicago":11502,"Dynam":11503,"##ziehungen":11504,"schauen":11505,"kommerzie":11506,"##ragende":11507,"##füllung":11508,"benötigen":11509,"verändern":11510,"##linger":11511,"##tischer":11512,"Verbrechen":11513,"gerufen":11514,"abgelehnt":11515,"##put":11516,"##ungsverfahren":11517,"gefahren":11518,"KG":11519,"beinhaltet":11520,"dunkel":11521,"Lor":11522,"nächst":11523,"##unfall":11524,"tour":11525,"Zauber":11526,"anschließ":11527,"Stadtrat":11528,"##antast":11529,"##geworfen":11530,"Jesu":11531,"ausdrücklich":11532,"Parallel":11533,"##hythm":11534,"angebracht":11535,"geprüft":11536,"kündigte":11537,"::":11538,"##Berlin":11539,"##spolit":11540,"##abet":11541,"##fangs":11542,"Verträge":11543,"##frü":11544,"##andal":11545,"##Nieder":11546,"##wahr":11547,"##drückt":11548,"Basketball":11549,"bezogen":11550,"##junkt":11551,"Brig":11552,"##EMEIN":11553,"verwendeten":11554,"Fu":11555,"Fonds":11556,"Tagung":11557,"GR":11558,"städtischen":11559,"Voraussetzung":11560,"hängen":11561,"##ère":11562,"speziellen":11563,"Cour":11564,"Komposition":11565,"##ami":11566,"29,":11567,"dün":11568,"Bahnstrecke":11569,"Baut":11570,"beauf":11571,"##Band":11572,"Klim":11573,"erober":11574,"Stellvertreter":11575,"##rr":11576,"##agra":11577,"##irch":11578,"over":11579,"Verteidigungs":11580,"1923":11581,"hierbei":11582,"1921":11583,"##steine":11584,"##bergen":11585,"##eichert":11586,"Mannes":11587,"gewissen":11588,"log":11589,"##alth":11590,"Gästen":11591,"steiger":11592,"58":11593,"350":11594,"gesamm":11595,"##verlag":11596,"Frucht":11597,"Sendung":11598,"Jacob":11599,"##kontrolle":11600,"##sende":11601,"##abrück":11602,"Motorrad":11603,"É":11604,"Lord":11605,"##2000":11606,"handelte":11607,"eröffnete":11608,"##mir":11609,"1926":11610,"aufnehmen":11611,"##laubnis":11612,"stren":11613,"69":11614,"09.":11615,"##gei":11616,"Größen":11617,"künst":11618,"gestalten":11619,"Spekt":11620,"israel":11621,"88":11622,"##übung":11623,"##echtigkeit":11624,"Amtsblatt":11625,"##play":11626,"Krim":11627,"Derzeit":11628,"Server":11629,"##amente":11630,"##sender":11631,"breite":11632,"verlängert":11633,"##stechnik":11634,"##ulpt":11635,"Positionen":11636,"Mom":11637,"##ufa":11638,"lust":11639,"##ussia":11640,"##gestellten":11641,"mut":11642,"17,":11643,"domin":11644,"Drehbuch":11645,"##stufe":11646,"##reen":11647,"Weltkrieges":11648,"×":11649,"Micro":11650,"##oro":11651,"Bast":11652,"Kontra":11653,"##arif":11654,"##andern":11655,"Werkzeug":11656,"IP":11657,"langfrist":11658,"##strecken":11659,"beur":11660,"interessant":11661,"##DA":11662,"anbieten":11663,"63":11664,"##meier":11665,"##aturen":11666,"enttäu":11667,"Kader":11668,"Erster":11669,"##kil":11670,"##mung":11671,"ausgesetzt":11672,"türkischen":11673,"Schwein":11674,"##engl":11675,"##ausgaben":11676,"Gustav":11677,"##(1)":11678,"Kün":11679,"Jün":11680,"##td":11681,"##lichten":11682,"##vorhaben":11683,"Betreiber":11684,"Kalk":11685,"##0000":11686,"##loser":11687,"Zuvor":11688,"##lav":11689,"ien":11690,"Fremden":11691,"dat":11692,"Somit":11693,"Speicher":11694,"een":11695,"beachten":11696,"Flag":11697,"Tatsächlich":11698,"19,":11699,"Standpunkt":11700,"Stücke":11701,"verhaf":11702,"##ulierung":11703,"##zentrums":11704,"Satur":11705,"##Musik":11706,"##räder":11707,"Demonstr":11708,"05.":11709,"##eiler":11710,"Ware":11711,"##apel":11712,"Lern":11713,"##medizin":11714,"##innung":11715,"##arbeitete":11716,"Innsbruck":11717,"##treffen":11718,"europäischer":11719,"verfolgen":11720,"##Institut":11721,"nunmehr":11722,"zugeordnet":11723,"Verfüg":11724,"zus":11725,"Trink":11726,"Ei":11727,"Loch":11728,"Monats":11729,"Brücken":11730,"##EW":11731,"Krebs":11732,"Wagner":11733,"Fell":11734,"##klassen":11735,"##schlüsse":11736,"beschränkt":11737,"fliegen":11738,"##wirkt":11739,"Café":11740,"Irgend":11741,"##fanter":11742,"gewinnt":11743,"Kleine":11744,"##Du":11745,"##wachst":11746,"Sollte":11747,"Pers":11748,"Aktualisierung":11749,"Währung":11750,"Felix":11751,"nutzt":11752,"Pension":11753,"roten":11754,"Kunststoff":11755,"Besetzung":11756,"##start":11757,"außergewöhn":11758,"erfolgreiche":11759,"Bremer":11760,"##Stud":11761,"nd":11762,"Schicksal":11763,"́":11764,"vorwiegend":11765,"Ausführung":11766,"Wäl":11767,"Mühl":11768,"steuer":11769,"Law":11770,"derselben":11771,"##abgeord":11772,"##Dok":11773,"##dinand":11774,"live":11775,"nationaler":11776,"Forderung":11777,"Franzisk":11778,"unglaub":11779,"Erwachsenen":11780,"existieren":11781,"##ira":11782,"Brie":11783,"vorliegenden":11784,"##ople":11785,"Florian":11786,"18,":11787,"##önt":11788,"Meyer":11789,"verursacht":11790,"französischer":11791,"##/2011":11792,"Benz":11793,"klingt":11794,"Augenblick":11795,"Hem":11796,"##board":11797,"Hyp":11798,"##spezif":11799,"##öz":11800,"##nie":11801,"famil":11802,"##zusehen":11803,"##front":11804,"##Jahren":11805,"Erf":11806,"##öpfe":11807,"Kerl":11808,"Französisch":11809,"ausgebaut":11810,"mittelalter":11811,"Workshop":11812,"vielmehr":11813,"Rundfunk":11814,"##ete":11815,"gefangen":11816,"Osc":11817,"Hass":11818,"ländlichen":11819,"Lar":11820,"Zell":11821,"leiten":11822,"##azif":11823,"offene":11824,"##OC":11825,"Vari":11826,"Hammer":11827,"has":11828,"Risiken":11829,"##sburger":11830,"1922":11831,"##unen":11832,"##athon":11833,"grü":11834,"Barbara":11835,"Geschmack":11836,"##fäll":11837,"dortigen":11838,"verhindert":11839,"erzielen":11840,"##snabrück":11841,"79":11842,"##völkerung":11843,"##ckte":11844,"##ili":11845,"##werfen":11846,"Aluminium":11847,"vorliegen":11848,"##sucht":11849,"##uchtung":11850,"Sens":11851,"##henden":11852,"VI":11853,"Anmeldung":11854,"##räglich":11855,"##richen":11856,"Zuletzt":11857,"Konstruktion":11858,"hierfür":11859,"Göttingen":11860,"Trocken":11861,"Präsent":11862,"##Serie":11863,"Orien":11864,"bestritt":11865,"Eines":11866,"selbständ":11867,"total":11868,"##/2012":11869,"deta":11870,"berücksichtigen":11871,"Pod":11872,"##sig":11873,"188":11874,"produ":11875,"July":11876,"Haust":11877,"bestätigte":11878,"Manuel":11879,"##mas":11880,"Altar":11881,"Arznei":11882,"internationaler":11883,"##reibungen":11884,"beschädigt":11885,"aufeinander":11886,"Eber":11887,"dürften":11888,"##NL":11889,"##arda":11890,"Tot":11891,"Wirk":11892,"Las":11893,"besaß":11894,"worauf":11895,"irgendwie":11896,"##issionen":11897,"kürzlich":11898,"##rollen":11899,"Fokus":11900,"ost":11901,"##block":11902,"Mah":11903,"##ghan":11904,"Sul":11905,"Gall":11906,"##rugen":11907,"##hielt":11908,"##fenster":11909,"##cH":11910,"DM":11911,"halte":11912,"Wolfs":11913,"]]":11914,"Bundesk":11915,"Kindergarten":11916,"##renten":11917,"##nachmittag":11918,"##ui":11919,"Damals":11920,"Rheinland":11921,"Typen":11922,"gezwungen":11923,"keinem":11924,"Pool":11925,"##tend":11926,"Power":11927,"Kilometern":11928,"beider":11929,"Kroatien":11930,"Lieferung":11931,"##cal":11932,"ansäss":11933,"##oko":11934,"bestanden":11935,"02.":11936,"Pas":11937,"##stä":11938,"##zgl":11939,"Bened":11940,"Enter":11941,"entwickelten":11942,"Ray":11943,"nett":11944,"Realität":11945,"Ã":11946,"ausgewählt":11947,"##OK":11948,"##Star":11949,"wenden":11950,"tre":11951,"Nachfolge":11952,"detaill":11953,"##strahlung":11954,"leichte":11955,"Auftakt":11956,"schwarzen":11957,"February":11958,"dokumen":11959,"##car":11960,"geschieht":11961,"##zeß":11962,"klicken":11963,"Quar":11964,"kulturellen":11965,"Ferienwohnung":11966,"vollkommen":11967,"Kell":11968,"Lieb":11969,"baute":11970,"##zustand":11971,"AUS":11972,"gefolgt":11973,"##hersteller":11974,"Indik":11975,"römischen":11976,"Verletzung":11977,"könig":11978,"##izont":11979,"gehei":11980,"##ason":11981,"Arme":11982,"erzeugt":11983,"##aft":11984,"Meck":11985,"manchen":11986,"Lob":11987,"Sech":11988,"##wachsen":11989,"mitteilte":11990,"willkommen":11991,"präsentieren":11992,"##boot":11993,"Ortst":11994,"DJ":11995,"##arma":11996,"##pi":11997,"##pport":11998,"unklar":11999,"Verteilung":12000,"Cr":12001,"Ref":12002,"##schauen":12003,"##ditionen":12004,"Kategorien":12005,"##kam":12006,"eingetragen":12007,"Vereinten":12008,"Stoffe":12009,"Steiger":12010,"Hut":12011,"24-":12012,"##wl":12013,"Heidelberg":12014,"Versammlung":12015,"##Gemein":12016,"Prom":12017,"##Âä":12018,"Schall":12019,"Bayerischen":12020,"ÇáÂä":12021,"##OT":12022,"##ÓÇ":12023,"##irr":12024,"##familien":12025,"lass":12026,"Halbfinale":12027,"eingest":12028,"##acker":12029,"##steuerung":12030,"##vorstand":12031,"##ea":12032,"##ev":12033,"##rahmen":12034,"Nation":12035,"##archiv":12036,"##kathol":12037,"##ateur":12038,"##ariat":12039,"Rostock":12040,"traten":12041,"Register":12042,"##mont":12043,"läßt":12044,"##-/":12045,"fühlt":12046,"##echte":12047,"Andrea":12048,"Liebes":12049,"##ÚÉ":12050,"##weichen":12051,"Sonstige":12052,"Laufbahn":12053,"Fähigkeit":12054,"##wendet":12055,"Aff":12056,"##kischen":12057,"Schätz":12058,"sicherlich":12059,"Maur":12060,"Code":12061,"ältesten":12062,"06.":12063,"##mechan":12064,"gemeldet":12065,"ÇáÓÇ":12066,"%.":12067,"Commun":12068,"Ehemann":12069,"##rix":12070,"ÇáÓÇÚÉ":12071,"erkannt":12072,"##2009":12073,"##bereichen":12074,"Infl":12075,"erreichten":12076,"##agte":12077,"Identität":12078,"##Ja":12079,"##üben":12080,"##onne":12081,"##förderung":12082,"##krank":12083,"##rond":12084,"Schülern":12085,"Kommunen":12086,"26,":12087,"(,":12088,"Bisher":12089,"##-12":12090,"##files":12091,"Digit":12092,"Manchmal":12093,"##tirol":12094,"##album":12095,"##ickte":12096,"charakter":12097,"##ätte":12098,"##macher":12099,"Sechs":12100,"schuld":12101,"##ides":12102,"ausgesprochen":12103,"gelassen":12104,"Gei":12105,"NRW":12106,"steckt":12107,"Innerhalb":12108,"Free":12109,"##nachrichten":12110,"Pel":12111,"teilt":12112,"##umer":12113,"mor":12114,"schlafen":12115,"Vereinigte":12116,"##uens":12117,"erlauben":12118,"##quelle":12119,"##UM":12120,"##bauung":12121,"Klang":12122,"schul":12123,"befind":12124,"angezeigt":12125,"##urcht":12126,"Abschied":12127,"vis":12128,"Universitäts":12129,"##rächt":12130,"##aszin":12131,"Greg":12132,"klare":12133,"geringen":12134,"popul":12135,"Weiterbildung":12136,"##ugies":12137,"Leop":12138,"Zeitungen":12139,"##gasse":12140,"brachten":12141,"##can":12142,"##öh":12143,"Nahrungsmittel":12144,"Ev":12145,"schwei":12146,"vertrat":12147,"dritt":12148,"verkaufte":12149,"Erzbischof":12150,"##ingst":12151,"##imeter":12152,"sammeln":12153,"umbenannt":12154,"##bour":12155,"##uropäischen":12156,"Mist":12157,"##ivals":12158,"##kos":12159,"Orch":12160,"IM":12161,"Margar":12162,"Auszeichnung":12163,"##Ind":12164,"brach":12165,"integriert":12166,"Manfred":12167,"##ßer":12168,"##tegien":12169,"Dritten":12170,"##ädt":12171,"##Gener":12172,"Emp":12173,"Town":12174,"belieb":12175,"ausgewiesen":12176,"Marco":12177,"beschrän":12178,"##nchen":12179,"Nachbarn":12180,"##tere":12181,"Tunnel":12182,"konstru":12183,"kenn":12184,"Gesetze":12185,"Christen":12186,"Geschenk":12187,"Bald":12188,"BMW":12189,"geriet":12190,"ohnehin":12191,"einiges":12192,"Gegenteil":12193,"##fh":12194,"##tracht":12195,"besei":12196,"innen":12197,"theoret":12198,"verbringen":12199,"##assten":12200,"damalige":12201,"##zählung":12202,"##osse":12203,"##wertungen":12204,"Einigung":12205,"Tieren":12206,"Ret":12207,"Osnabrück":12208,"##verteidiger":12209,"##rip":12210,"(17":12211,"Frie":12212,"Hinzu":12213,"nochmals":12214,"Generald":12215,"##suchen":12216,"echte":12217,"Beteiligten":12218,"##regeln":12219,"##eitungs":12220,"##institut":12221,"##Mode":12222,"Dateien":12223,"Vern":12224,"##flüge":12225,"Verpack":12226,"##stehende":12227,"2-":12228,"Kommissar":12229,"Pilot":12230,"##tex":12231,"Joe":12232,"##jahren":12233,"##link":12234,"Datenschutz":12235,"Ferdinand":12236,"AP":12237,"zweier":12238,"aktive":12239,"Export":12240,"Daraufhin":12241,"Spark":12242,"##bal":12243,"##konzept":12244,"##laut":12245,"##zl":12246,"konserv":12247,"1912":12248,"vierte":12249,"entdeck":12250,"##set":12251,"##firma":12252,"....":12253,"##ufer":12254,"Variante":12255,"Schicht":12256,"niedrig":12257,"junger":12258,"PR":12259,"Oste":12260,"vorange":12261,"Solar":12262,"Bildern":12263,"verbinden":12264,"##hochschule":12265,"stehe":12266,"##obel":12267,"natürliche":12268,"fu":12269,"##verletzung":12270,"gegründete":12271,"Hug":12272,"1931":12273,"Katastrop":12274,"Sachver":12275,"Sec":12276,"Hav":12277,"##legungen":12278,"Knochen":12279,"##dorfer":12280,"Manche":12281,"##farben":12282,"Mrs":12283,"Soph":12284,"syn":12285,"##We":12286,"Galerie":12287,"##ÿÿÿÿ":12288,"##odes":12289,"Ingenieur":12290,"Sagen":12291,"1500":12292,"Moun":12293,"Potsdam":12294,"Penn":12295,"Dür":12296,"serv":12297,"Grundlagen":12298,"bit":12299,"Treff":12300,"lieb":12301,"tschech":12302,"Neun":12303,"Kub":12304,"Science":12305,"Deutscher":12306,"genaue":12307,"Nap":12308,"Sund":12309,"urkund":12310,"Sprung":12311,"Bele":12312,"Ferr":12313,"saß":12314,"teuer":12315,"##ministrat":12316,"Helfer":12317,"Sieh":12318,"normalen":12319,"77":12320,"ord":12321,"##nc":12322,"##ence":12323,"Preußen":12324,"Spitz":12325,"Reiter":12326,"Zahlung":12327,"##atze":12328,"##ministeriums":12329,"Gibt":12330,"latein":12331,"##ethe":12332,"Tempo":12333,"Autofahrer":12334,"Stab":12335,"Apost":12336,"mittlere":12337,"out":12338,"900":12339,"Tenden":12340,"gelingt":12341,"##gegnung":12342,"##/8":12343,"##abschluss":12344,"##ebene":12345,"berichten":12346,"Pin":12347,"richtet":12348,"##präsentanten":12349,"Willkommen":12350,"schaffte":12351,"Francisco":12352,"##Meister":12353,"##onomy":12354,"phil":12355,"Befrei":12356,"68":12357,"##aillen":12358,"Getränke":12359,"empfangen":12360,"Erwachsene":12361,"stehenden":12362,"##cho":12363,"##ems":12364,"fjo":12365,"Gau":12366,"Opern":12367,"gemessen":12368,"##afr":12369,"##lehrer":12370,"##OG":12371,"Format":12372,"Normen":12373,"Tue":12374,"Wirklichkeit":12375,"lasse":12376,"##Em":12377,"##kapelle":12378,"Human":12379,"seiten":12380,"Gö":12381,"Flach":12382,"Sher":12383,"Antrieb":12384,"81":12385,"##gigen":12386,"gelernt":12387,"versetzt":12388,"##feier":12389,"Konrad":12390,"##formance":12391,"nen":12392,"##eichern":12393,"Wahlkreis":12394,"##ürt":12395,"89":12396,"##eidung":12397,"Übersicht":12398,"76":12399,"Ruhestand":12400,"##ume":12401,"Mehrere":12402,"Si":12403,"##beruf":12404,"Trieb":12405,"lokale":12406,"##schießen":12407,"##gehalt":12408,"Sak":12409,"##ausschuß":12410,"heiligen":12411,"verhaftet":12412,"arbeits":12413,"##findet":12414,"##emand":12415,"gekenn":12416,"##sert":12417,"##lesen":12418,"##oms":12419,"##fot":12420,"sahen":12421,"##samt":12422,"##eher":12423,"Venedig":12424,"##stes":12425,"##/15":12426,"##.),":12427,"##auschen":12428,"Anwendungs":12429,"Grundschule":12430,"January":12431,"solange":12432,"##planung":12433,"##winkel":12434,"##UF":12435,"10.000":12436,"üblich":12437,"##rg":12438,"solltest":12439,"ine":12440,"liefert":12441,"93":12442,"Partnerschaft":12443,"##kinder":12444,"Pic":12445,"##Fest":12446,"VfB":12447,"67":12448,"##prozess":12449,"##BS":12450,"##PG":12451,"erkenn":12452,"Ihres":12453,"##uben":12454,"Ped":12455,"sparen":12456,"errichten":12457,"Brunnen":12458,"##förmig":12459,"Respekt":12460,"##weisungen":12461,"zust":12462,"##usen":12463,"(9":12464,"rt":12465,"Rio":12466,"##beln":12467,"Branche":12468,"Kanal":12469,"##regelung":12470,"##anie":12471,"Denken":12472,"Mathematik":12473,"##wissenschaftler":12474,"Ken":12475,"##gleichung":12476,"##char":12477,"Anf":12478,"Überein":12479,"Pho":12480,"Einfach":12481,"antwor":12482,"Sankt":12483,"##sprungs":12484,"##box":12485,"86":12486,"Cann":12487,"DR":12488,"spätere":12489,"##reche":12490,"gewid":12491,"Besser":12492,"Mannheim":12493,"Augsburg":12494,"fern":12495,"##utton":12496,"GMT":12497,"Profil":12498,"reserv":12499,"##schaffung":12500,"Residen":12501,"betreibt":12502,"angeblich":12503,"anhalten":12504,"Ener":12505,"Landwir":12506,"##03":12507,"Seen":12508,"Redaktion":12509,"Bauch":12510,"unterscheidet":12511,"Inse":12512,"##tum":12513,"Architekt":12514,"jederzeit":12515,"##aya":12516,"Atem":12517,"übrig":12518,"Bundestag":12519,"Wandel":12520,"##Holstein":12521,"##gäste":12522,"Spieltag":12523,"BV":12524,"Stationen":12525,"Kam":12526,"Branchen":12527,"Records":12528,"rn":12529,"Angesichts":12530,"transpor":12531,"Mittelfeld":12532,"Zut":12533,"Toil":12534,"##plant":12535,"Kum":12536,"##schaden":12537,"##haushalt":12538,"erfasst":12539,"Darmstadt":12540,"Hau":12541,"konzentrieren":12542,"1913":12543,"Handwerk":12544,"Futter":12545,"nachgewiesen":12546,"1)":12547,"##eimar":12548,"23,":12549,"Fitness":12550,"##maler":12551,"Coach":12552,"Absch":12553,"##seln":12554,"##baute":12555,"##teilten":12556,"Zahlungs":12557,"Spiels":12558,"}":12559,"Gn":12560,"Vorlage":12561,"positiven":12562,"Pferd":12563,"Inzwischen":12564,"trag":12565,"Mercedes":12566,"vergangen":12567,"Junioren":12568,"Haupts":12569,"verliert":12570,"##ampe":12571,"vereinbar":12572,"Weltcup":12573,"Botschafter":12574,"Bürgern":12575,"arab":12576,"##bä":12577,"##omer":12578,"##chor":12579,"NS":12580,"##partei":12581,"Betreuung":12582,"Schr":12583,"##ferenzen":12584,"##ictionary":12585,"Frühl":12586,"Verbot":12587,"Eta":12588,"##holm":12589,"vergröß":12590,"##agert":12591,"Quadratmeter":12592,"##Kn":12593,"beenden":12594,"##vern":12595,"##asa":12596,"bestätigen":12597,"Fakultät":12598,"Adels":12599,"##ito":12600,"62":12601,"leer":12602,"Theologie":12603,"##werbst":12604,"besonderer":12605,"anfangs":12606,"##amtes":12607,"Acker":12608,"##vereinigung":12609,"##ränkung":12610,"Spar":12611,"##ities":12612,"Cro":12613,"Koordinierung":12614,"erstellen":12615,"ergab":12616,"aussehen":12617,"eur":12618,"Vortrag":12619,"Eigentum":12620,"Befehl":12621,"Gep":12622,"funktionieren":12623,"Kardin":12624,"##ließen":12625,"nachzu":12626,"Gebäudes":12627,"##eilung":12628,"englische":12629,"##eton":12630,"verbrachte":12631,"##topic":12632,"##pn":12633,"Verkaufs":12634,"zeitweise":12635,"Dichter":12636,"engagiert":12637,"##kla":12638,"##anbul":12639,"OR":12640,"Sterne":12641,"Einkaufs":12642,"Senat":12643,"exper":12644,"trafen":12645,"Vertretern":12646,"##gewal":12647,"VfL":12648,"schlechter":12649,"##Art":12650,"kämpf":12651,"bürger":12652,"##Film":12653,"festgenommen":12654,"Hockey":12655,"##beziehungen":12656,"Gemälde":12657,"droht":12658,"Cob":12659,"siehst":12660,"Amaz":12661,"##Jähriger":12662,"gesichert":12663,"##spekt":12664,"Bedürfnisse":12665,"Empfehlungen":12666,"Gegenwart":12667,"##yo":12668,"##heber":12669,"zählte":12670,"sobald":12671,"keinerlei":12672,"##ments":12673,"##gott":12674,"##wellen":12675,"Coll":12676,"Abfall":12677,"tiefer":12678,"##lehnung":12679,"Route":12680,"Olympia":12681,"Regelungen":12682,"Kie":12683,"##otball":12684,"frühe":12685,"Agentur":12686,"##pflanz":12687,"Merkmale":12688,"profitieren":12689,"Kalender":12690,"benachbarten":12691,"dn":12692,"##11.2016":12693,"zeitgenöss":12694,"jung":12695,"href":12696,"Beitritt":12697,"verzichten":12698,"1.2.":12699,"Result":12700,"##issement":12701,"Untersuchungs":12702,"##bay":12703,"Abschluß":12704,"##kä":12705,"Alp":12706,"extra":12707,"##lichkeits":12708,"Thüringen":12709,"##\"]=":12710,"aufgehoben":12711,"spätestens":12712,"##uver":12713,"Kupfer":12714,"##Klasse":12715,"##mutter":12716,"WC":12717,"##sern":12718,"Linz":12719,"Fußgänger":12720,"Türen":12721,"vorn":12722,"##04":12723,"Aktualisiert":12724,"##tl":12725,"Karlsruhe":12726,"Jury":12727,"##ächter":12728,"##ventionen":12729,"##work":12730,"umfassende":12731,"##750":12732,"1860":12733,"##ablen":12734,"beschleun":12735,"3000":12736,"Jord":12737,"EIB":12738,"##gewerbe":12739,"1917":12740,"Erhaltung":12741,"Stufe":12742,"dicht":12743,"##vorsitzende":12744,"##esn":12745,"Society":12746,"Abbau":12747,"sn":12748,"geringe":12749,"beruh":12750,"##IEN":12751,"Tagesordnung":12752,"##fernen":12753,"stir":12754,"##akademie":12755,"befördert":12756,"Begründung":12757,"portugies":12758,"Investoren":12759,"##xe":12760,"Datenbank":12761,"Monte":12762,"##\\/":12763,"intern":12764,"##Jo":12765,"##sendung":12766,"gestartet":12767,"Hig":12768,"sad":12769,"entdecken":12770,"won":12771,"more":12772,"herrscht":12773,"##banken":12774,"##kamer":12775,"##oni":12776,"##rikt":12777,"##Fraktion":12778,"monat":12779,"Tay":12780,"##Da":12781,"##imente":12782,"Kriminal":12783,"Werbe":12784,"##berge":12785,"Befra":12786,"##oul":12787,"Smith":12788,"##act":12789,"Inhaber":12790,"gerettet":12791,"liter":12792,"##aue":12793,"Kommentar":12794,"Od":12795,"##präsen":12796,"##verbände":12797,"geschätzt":12798,"##wall":12799,"gemüt":12800,"richten":12801,"Überleben":12802,"##1999":12803,"Ausstellungen":12804,"wa":12805,"ausreichen":12806,"##well":12807,"Kult":12808,"##ope":12809,"Regionall":12810,"Tiefe":12811,"##gf":12812,"Mineral":12813,"Pfarrkirche":12814,"##-09":12815,"ausgerichtet":12816,"begrüßt":12817,"zurückzuführen":12818,"##gibt":12819,"normalerweise":12820,"ads":12821,"einfacher":12822,"Akten":12823,"##ffekte":12824,"Mischung":12825,"Erwartungen":12826,"Still":12827,"December":12828,"Liss":12829,"stimmen":12830,"##Schule":12831,"##elles":12832,"Plattform":12833,"außerorden":12834,"##formation":12835,"##quem":12836,"##ikon":12837,"gelegentlich":12838,"errichtete":12839,"##hauptstadt":12840,"überprüfen":12841,"##bestimmungen":12842,"gebunden":12843,"##hüter":12844,"##sko":12845,"##SCHAF":12846,"überrascht":12847,"Jedoch":12848,"##enkung":12849,"##06":12850,"##cil":12851,"Ihm":12852,"schuf":12853,"##Nord":12854,"Installation":12855,"##5.000":12856,"##ulieren":12857,"erteilt":12858,"##etze":12859,"Etwas":12860,"restaur":12861,"Sektoren":12862,"##pression":12863,"anlässlich":12864,"##Ste":12865,"##ols":12866,"##itas":12867,"##dungs":12868,"AC":12869,"##güter":12870,"Trennung":12871,"Krei":12872,"Austral":12873,"Panzer":12874,"Advent":12875,"##webe":12876,"Lake":12877,"Parad":12878,"Ärger":12879,"##hb":12880,"verschwunden":12881,"kostenlose":12882,"Appl":12883,"##-11":12884,"kW":12885,"##ogramm":12886,"Konzerte":12887,"##hört":12888,"schied":12889,"schwarze":12890,"##analyse":12891,"##/05":12892,"Ga":12893,"##glei":12894,"geleitet":12895,"##ml":12896,"Julia":12897,"##behandlung":12898,"##erve":12899,"grenz":12900,"##plätzen":12901,"Oscar":12902,"Handlung":12903,"Mannschafts":12904,"##ehrer":12905,"Rose":12906,"Rücktritt":12907,"##bares":12908,"lernte":12909,"##zehnte":12910,"##drucken":12911,"##ede":12912,"entschuld":12913,"Orden":12914,"Ehre":12915,"mehrmals":12916,"Veranstaltungs":12917,"##streifen":12918,"Gewinner":12919,"Vel":12920,"Alexand":12921,"##Arch":12922,"Corpor":12923,"resul":12924,"Szenen":12925,"30,":12926,"##autor":12927,"##ieber":12928,"reagieren":12929,"überraschend":12930,"Ankunft":12931,"71":12932,"womit":12933,"Versicher":12934,"korre":12935,"Upd":12936,"TH":12937,"##ovic":12938,"##ÜR":12939,"##ICHT":12940,"##schungs":12941,"Academ":12942,"Solidar":12943,"Lam":12944,"##azier":12945,"Darum":12946,"Ky":12947,"##ässt":12948,"##igan":12949,"Bergen":12950,"Fortschritt":12951,"Oze":12952,"##osl":12953,"##sprodu":12954,"Verstär":12955,"gelegene":12956,"##lein":12957,"sinnvoll":12958,"##ín":12959,"Mario":12960,"Weiterhin":12961,"Holly":12962,"kre":12963,"beliebt":12964,"Buchung":12965,"##rue":12966,"##ania":12967,"##ameter":12968,"Schmuck":12969,"##oden":12970,"Sozi":12971,"großem":12972,"beträcht":12973,"##hai":12974,"verwei":12975,"Hindern":12976,"##dia":12977,"##kow":12978,"Äußer":12979,"Audi":12980,"zuläss":12981,"about":12982,"verständ":12983,"politischer":12984,"##PP":12985,"Franzosen":12986,"gewährleistet":12987,"Beine":12988,"scheinen":12989,"##gängen":12990,"##Jahre":12991,"häufiger":12992,"schnelle":12993,"##Ac":12994,"Fußballspieler":12995,"##sbaden":12996,"##alteten":12997,"Association":12998,"geregelt":12999,"##Don":13000,"##klen":13001,"berechnet":13002,"##soft":13003,"Bundeswehr":13004,"Kugel":13005,"##utete":13006,"zzgl":13007,"Gesellschaften":13008,"Digital":13009,"##äle":13010,"Lee":13011,"##atsch":13012,"tn":13013,"##ops":13014,"Möbel":13015,"Lokomo":13016,"##iche":13017,"falsche":13018,"1.4.":13019,"Berechnung":13020,"Verhandlung":13021,"bemerken":13022,"abend":13023,"Aqu":13024,"Alte":13025,"Vorfeld":13026,"Vi":13027,"##reichung":13028,"Edward":13029,"##ista":13030,"##spreis":13031,"Jenn":13032,"hierher":13033,"78":13034,"84":13035,"ersetzen":13036,"Sekund":13037,"Davon":13038,"##Tour":13039,"Dich":13040,"##bevölkerung":13041,"behandeln":13042,"sagten":13043,"##graf":13044,"samt":13045,"erzeugen":13046,"Eintracht":13047,"##glück":13048,"Hilf":13049,"Komponenten":13050,"##dehn":13051,"##igtes":13052,"Scott":13053,"##raf":13054,"##leihung":13055,"stärken":13056,"human":13057,"garantiert":13058,"##Po":13059,"Favor":13060,"SA":13061,"Plus":13062,"##akten":13063,"Erneuer":13064,"\")":13065,"(7)":13066,"Entschuldigung":13067,"Sowohl":13068,"##verm":13069,"schn":13070,"Pierre":13071,"##älte":13072,"Apple":13073,"##sorge":13074,"Schwarzw":13075,"fach":13076,"Captain":13077,"Kindes":13078,"Wes":13079,"Extra":13080,"bedeutende":13081,"Abweich":13082,"feiert":13083,"##ape":13084,"Ot":13085,"Zugriff":13086,"##punkten":13087,"Costa":13088,"austral":13089,"Ursprünglich":13090,"gelesen":13091,"Smartph":13092,"konkrete":13093,"Tabak":13094,"Händler":13095,"fried":13096,"Unbek":13097,"Hügel":13098,"##horst":13099,"##js":13100,"##adbach":13101,"##hotel":13102,"##yen":13103,"##imir":13104,"Mall":13105,"Mehrwert":13106,"Diskrimin":13107,"Ten":13108,"Cha":13109,"schwedischen":13110,"##geboren":13111,"Infanter":13112,"2:0":13113,"Beach":13114,"bevorzu":13115,"Kund":13116,"##esh":13117,"Ausrichtung":13118,"geboten":13119,"ebt":13120,"Batter":13121,"Phän":13122,"Haare":13123,"##(0":13124,"Tags":13125,"##ahnsinn":13126,"##kurse":13127,"Fähr":13128,"##swerte":13129,"Gefähr":13130,"Entstehung":13131,"24,":13132,"expl":13133,"Sky":13134,"Begegnung":13135,"##rio":13136,"Süß":13137,"##behör":13138,"Arbeitskräfte":13139,"White":13140,"##haltungs":13141,"Handlungs":13142,"Bundestags":13143,"preis":13144,"verbrei":13145,"dram":13146,"##dictionary":13147,"bezug":13148,"##klagt":13149,"Anmer":13150,"Telekommun":13151,"##aa":13152,"Ruhr":13153,"gestohlen":13154,"##deb":13155,"##meldungen":13156,"##!!":13157,"Beratungs":13158,"##gründen":13159,"Millimeter":13160,"##TP":13161,"Enkel":13162,"Seitdem":13163,"Süddeutsche":13164,"Filmen":13165,"##ikat":13166,"##én":13167,"##.).":13168,"##sehr":13169,"nov":13170,"##staats":13171,"##abschnitt":13172,"Borussia":13173,"verstarb":13174,"##=1":13175,"##national":13176,"Blog":13177,"Durchschnitts":13178,"##uay":13179,"cl":13180,"Major":13181,"Quote":13182,"##gehende":13183,"Therapie":13184,"Marcel":13185,"meinst":13186,"Tee":13187,"Ziels":13188,"##zem":13189,"##rien":13190,"zuverläss":13191,"##abon":13192,"effiz":13193,"##städter":13194,"üblichen":13195,"Metrop":13196,"scheiterte":13197,"grat":13198,"##pert":13199,"vieles":13200,"1911":13201,"##kräf":13202,"##sprochen":13203,"##parks":13204,"##weiß":13205,"##stellers":13206,"##gru":13207,"‟":13208,"Ereignis":13209,"##amik":13210,"Zie":13211,"Ohr":13212,"doppel":13213,"##äule":13214,"##rus":13215,"Veranstalter":13216,"traditionelle":13217,"##gebiets":13218,"##teilungs":13219,"erhebliche":13220,"Abenteuer":13221,"Vizepräsident":13222,"Haup":13223,"Planeten":13224,"Kanz":13225,"##verbindung":13226,"Unterlagen":13227,"##DS":13228,"##vereinbar":13229,"Kassel":13230,"Streifen":13231,"erläutert":13232,"liegenden":13233,"##Sport":13234,"##/04/17":13235,"frisch":13236,"##Amer":13237,"mögen":13238,"österreichische":13239,"jetz":13240,"##herstellung":13241,"##wün":13242,"Schriften":13243,"##rl":13244,"Magdeburg":13245,"reagiert":13246,"##herrschaft":13247,"Erstellung":13248,"##ologien":13249,"Istanbul":13250,"Brow":13251,"##taxonomy":13252,"Epis":13253,"##elor":13254,"##lösen":13255,"##EUR":13256,"meistens":13257,"lux":13258,"Corn":13259,"Jörg":13260,"EGKS":13261,"Aufenthalts":13262,"##246;":13263,"Erzeugung":13264,"##ölle":13265,"berühmten":13266,"info":13267,"##wogen":13268,"flex":13269,"rufen":13270,"##saal":13271,"Brutto":13272,"##grunde":13273,"Antonio":13274,"Versuche":13275,"##verhältnis":13276,"##studium":13277,"Kläger":13278,"Archä":13279,"feststellen":13280,"koordin":13281,"73":13282,"##Kan":13283,"ZDF":13284,"stattdessen":13285,"Braunschweig":13286,"Gewerkschaften":13287,"##ismen":13288,"Bestellung":13289,"Eth":13290,"##orp":13291,"-,":13292,"##lecht":13293,"einsetzen":13294,"Woher":13295,"Ax":13296,"sim":13297,"Bestehen":13298,"hüb":13299,"Klin":13300,"Vereinbarungen":13301,"##lack":13302,"ursprüngliche":13303,"eleg":13304,"##vas":13305,"Vorstellungen":13306,"Masse":13307,"Skulpt":13308,"dreimal":13309,"##zeitraum":13310,"Erdbe":13311,"Pav":13312,"Hitler":13313,"einstimm":13314,"sda":13315,"Herausgeber":13316,"##mäler":13317,"##xit":13318,"##echten":13319,"sonstigen":13320,"##Li":13321,"ruft":13322,"fein":13323,"Helm":13324,"##zeugnis":13325,"begleiten":13326,"##uras":13327,"schwerer":13328,"##ämmer":13329,"umzu":13330,"##ammten":13331,"Langen":13332,"##itzung":13333,"Wich":13334,"##ysi":13335,"mü":13336,"Faktor":13337,"##opfer":13338,"Glau":13339,"##folgerungen":13340,"##onst":13341,"##ührung":13342,"fielen":13343,"Pek":13344,"begründet":13345,"##üchte":13346,"##wörter":13347,"##arbeitungs":13348,"unternehmen":13349,"##Met":13350,"Lever":13351,"Kleidung":13352,"(16":13353,"Zir":13354,"Komponist":13355,"beeinflusst":13356,"1905":13357,"symbol":13358,"5000":13359,"##räte":13360,"Benj":13361,"Intelligen":13362,"##agoge":13363,"Lein":13364,"1:1":13365,"verbr":13366,"Geschw":13367,"Ford":13368,"##fers":13369,"Staub":13370,"##zieher":13371,"Absol":13372,"ll":13373,"##stätigkeit":13374,"wipe":13375,"##athan":13376,"Schweine":13377,"Komprom":13378,"##obte":13379,"##San":13380,"##kind":13381,"las":13382,"##very":13383,"festen":13384,"##pos":13385,"asd":13386,"Äl":13387,"umwelt":13388,"##lernen":13389,"hierzu":13390,"Viol":13391,"verfasste":13392,"est":13393,"Betten":13394,"Hölle":13395,"Tüb":13396,"##achteil":13397,"Bewusstsein":13398,"Wiesbaden":13399,"##mete":13400,"Lärm":13401,"Haw":13402,"##rengungen":13403,"##zessin":13404,"Bulgarien":13405,"##rung":13406,"Leider":13407,"kriegen":13408,"geltenden":13409,"##sse":13410,"##stellern":13411,"Index":13412,"1907":13413,"zugrunde":13414,"##periode":13415,"##besitzer":13416,"##ahls":13417,"##aufnahmen":13418,"ka":13419,"Finanzierungs":13420,"betrachten":13421,"##verhalten":13422,"Künstlern":13423,"Bour":13424,"##ächt":13425,"gewidmet":13426,"Kommunikations":13427,"klin":13428,"##rechtlichen":13429,"##pause":13430,"Straßenbahn":13431,"##cle":13432,"##Inter":13433,"Projekts":13434,"##zoll":13435,"halben":13436,"Märkte":13437,"##otter":13438,"##ichen":13439,"##jahre":13440,"Effizienz":13441,"Final":13442,"überein":13443,"kalt":13444,"Halbzeit":13445,"##nieder":13446,"##sbest":13447,"einges":13448,"##Bar":13449,"##TH":13450,"##ulver":13451,"verbundenen":13452,"--":13453,"Pokal":13454,"Lkw":13455,"werfen":13456,"Fang":13457,"künftigen":13458,"bedroht":13459,"Physik":13460,"##geschäf":13461,"Maus":13462,"befanden":13463,"##rondissement":13464,"##ctor":13465,"begrenz":13466,"institution":13467,"##ementen":13468,"Mangel":13469,"seitens":13470,"Schönheit":13471,"##uni":13472,"Cham":13473,"ökonom":13474,"Null":13475,"##alisieren":13476,"##dert":13477,"##Kar":13478,"##waffen":13479,"Noten":13480,"inspir":13481,"AL":13482,"Konserv":13483,"Kommando":13484,"öffnet":13485,"zusammengef":13486,"Zulassung":13487,"dynam":13488,"Grupp":13489,"Aktuell":13490,"Flüss":13491,"Zo":13492,"British":13493,"##leitungen":13494,"kulturelle":13495,"Verschiedene":13496,"##Groß":13497,"##präsidenten":13498,"##ampen":13499,"hörte":13500,"##ökonom":13501,"Infos":13502,"##kes":13503,"##kol":13504,"83":13505,"##zens":13506,"##zungen":13507,"lande":13508,"Feind":13509,"Paläst":13510,"##earch":13511,"Kontext":13512,"angepasst":13513,"##üg":13514,"nütz":13515,"aufgegeben":13516,"Erwerbs":13517,"Mecklenburg":13518,"##Frank":13519,"dsa":13520,"Ernährung":13521,"Skla":13522,"##schenden":13523,"NT":13524,"##strategie":13525,"Außenminister":13526,"zentral":13527,"Mahl":13528,"Geschlecht":13529,"schlechten":13530,"traur":13531,"Ursprungs":13532,"##papier":13533,"Budap":13534,"Yor":13535,"##bler":13536,"Immun":13537,"katholische":13538,"Krone":13539,"Besuchern":13540,"ebenda":13541,"##lastung":13542,"umfangreiche":13543,"##ASS":13544,"##ukle":13545,"##woche":13546,"\";":13547,"Zä":13548,"ss":13549,"##schild":13550,"##ologischer":13551,"installiert":13552,"irgendwo":13553,"Mes":13554,"Grill":13555,"volle":13556,"##zige":13557,"Beitritts":13558,"Fahrzeugen":13559,"##enke":13560,"Klimaanlage":13561,"Proben":13562,"##uri":13563,"maximale":13564,"Beat":13565,"beschäftigen":13566,"geliefert":13567,"##aal":13568,"##brech":13569,"gegebenenfalls":13570,"##kg":13571,"##änderung":13572,"##wd":13573,"##gebirge":13574,"##märkte":13575,"itm":13576,"Hert":13577,"Fahrbahn":13578,"//":13579,"##ienste":13580,"gelöst":13581,"##berater":13582,"genügend":13583,"##luft":13584,"Papa":13585,"protest":13586,"##seud":13587,"solches":13588,"##adi":13589,"löste":13590,"Finanzen":13591,"Winkel":13592,"##&#246;":13593,"##rüger":13594,"Graz":13595,"GEMEIN":13596,"##dere":13597,"Vertrages":13598,"Standards":13599,"ermordet":13600,"##jon":13601,"##werbung":13602,"Tän":13603,"Strahl":13604,"Riv":13605,"vermitteln":13606,"##verlust":13607,"Hierbei":13608,"Arrondissement":13609,"82":13610,"##sprechung":13611,"##bab":13612,"##verarbeitung":13613,"Ble":13614,"##gewinn":13615,"betreut":13616,"##bayer":13617,"##bezeichnung":13618,"##begr":13619,"Wettbe":13620,"Kevin":13621,"komplette":13622,"##ury":13623,"Schulz":13624,"verkehr":13625,"oberhalb":13626,"diverse":13627,"##Platz":13628,"Saturday":13629,"##Dr":13630,"##AV":13631,"Woll":13632,"##Fran":13633,"beeinträch":13634,"setzten":13635,"leistungs":13636,"##dio":13637,"##valu":13638,"befest":13639,"##siv":13640,"##ießt":13641,"Umfrage":13642,"Amb":13643,"Segel":13644,"Äm":13645,"hofft":13646,"##ivery":13647,"Buchstabe":13648,"##urlaub":13649,"Cru":13650,"nt":13651,"inne":13652,"Bibel":13653,"##utr":13654,"Töchter":13655,"##hold":13656,"fragt":13657,"##abor":13658,"##web":13659,"Dame":13660,"##beziehung":13661,"wenigstens":13662,"Einfuhren":13663,"Diskussionen":13664,"##ausgabe":13665,"Games":13666,"##ING":13667,"##bereitung":13668,"Frid":13669,"##öne":13670,"trans":13671,"Ero":13672,"Erklär":13673,"Sängerin":13674,"94":13675,"##rup":13676,"##cin":13677,"Vieh":13678,"Schott":13679,"Slowen":13680,"Runden":13681,"zumeist":13682,"vorerst":13683,"tmi":13684,"##sparenz":13685,"##anta":13686,"##ypern":13687,"mti":13688,"letztes":13689,"Zusammensetzung":13690,"Atlan":13691,"##nö":13692,"Genossen":13693,"Übergangs":13694,"##ector":13695,"wonach":13696,"Darin":13697,"verdammt":13698,"fertiggestellt":13699,"##staatlichen":13700,"erfordert":13701,"up":13702,"74":13703,"zusammenge":13704,"militärischen":13705,"Generationen":13706,"##sproblem":13707,"ergänzen":13708,"Versorgungs":13709,"Arthur":13710,"##gehenden":13711,"beruht":13712,"##Men":13713,"##tlicher":13714,"Nahrung":13715,"Republ":13716,"Wahlkampf":13717,"Zertif":13718,"erhöhte":13719,"Hamm":13720,"Benedikt":13721,"##-4":13722,"menschliche":13723,"Geheimnis":13724,"bestellt":13725,"Baur":13726,"Erich":13727,"##ecial":13728,"(†":13729,"##fg":13730,"bat":13731,"##üttel":13732,"##hart":13733,"Argentinien":13734,"(15":13735,"Nerven":13736,"Bundeskanzler":13737,"geborene":13738,"herausgegeben":13739,"imt":13740,"Kindheit":13741,"präz":13742,"beher":13743,"ß":13744,"##BB":13745,"Kaisers":13746,"##vard":13747,"verwendete":13748,"##ÄISCH":13749,"Road":13750,"##etti":13751,"vollständige":13752,"Intens":13753,"##personen":13754,"veranstaltet":13755,"##invest":13756,"##betriebe":13757,"Raf":13758,"##itiv":13759,"##aufgaben":13760,"Wollen":13761,"Mobilität":13762,"##russ":13763,"eis":13764,"seither":13765,"voneinander":13766,"Überprüfung":13767,"Schiffs":13768,"längere":13769,"##imme":13770,"Reu":13771,"Spir":13772,"Mak":13773,"##vort":13774,"##It":13775,"Schwarzen":13776,"##bv":13777,"##mäss":13778,"ther":13779,"##kü":13780,"87":13781,"Küchen":13782,"vorläuf":13783,"Jugoslaw":13784,"ret":13785,"##swürd":13786,"Wissenschaften":13787,"Sportler":13788,"spezifischen":13789,"hn":13790,"Dsch":13791,"##wachstum":13792,"Rass":13793,"renov":13794,"immerhin":13795,"##vertra":13796,"##onischen":13797,"erkennt":13798,"fassen":13799,"years":13800,"rechtzeitig":13801,"Flüchtlings":13802,"##xx":13803,"Fusion":13804,"grenzt":13805,"1908":13806,"##gegn":13807,"fragte":13808,"Günther":13809,"islam":13810,"Glocken":13811,"##arta":13812,"By":13813,"##anter":13814,"##ydro":13815,"mutmaß":13816,"wesentliche":13817,"Neb":13818,"Seminar":13819,"##anna":13820,"Überraschung":13821,"verwir":13822,"Mailand":13823,"##inos":13824,"Meld":13825,"Kapazität":13826,"##ützten":13827,"Kun":13828,"Anbau":13829,"##Stunden":13830,"schreck":13831,"gn":13832,"Einladung":13833,"römisch":13834,"##1994":13835,"##hau":13836,"tolle":13837,"##schiffe":13838,"jemals":13839,"Benjamin":13840,"##rea":13841,"Boch":13842,"umfasste":13843,"##gliedern":13844,"met":13845,"Dimension":13846,"Aspekt":13847,"##aldo":13848,"Interpret":13849,"##betten":13850,"Weimar":13851,"abgerissen":13852,"Leitlinien":13853,"Kau":13854,"gekennzeichnet":13855,"einsch":13856,"Vul":13857,"sagst":13858,"Richtig":13859,"Früchte":13860,"Berufung":13861,"##iehlt":13862,"Leopold":13863,"verschwinden":13864,"##sor":13865,"##krie":13866,"Gepäck":13867,"##angaben":13868,"Saar":13869,"Kühlschrank":13870,"##dner":13871,"Ath":13872,"##cor":13873,"##angel":13874,"entworfen":13875,"##GL":13876,"ann":13877,"Gouverneur":13878,"##ining":13879,"Ross":13880,"Dörfer":13881,"##EZ":13882,"Cla":13883,"Neuse":13884,"Übertragung":13885,"##sache":13886,"Stärkung":13887,"##akes":13888,"pra":13889,"##dom":13890,"sonstige":13891,"##tan":13892,"Gedenk":13893,"gelb":13894,"##UNGS":13895,"##nehmung":13896,"tue":13897,"##hedr":13898,"##regen":13899,"breiter":13900,"Migration":13901,"emotion":13902,"##pan":13903,"themat":13904,"##gemacht":13905,"Zigar":13906,"zeichnet":13907,"Nehmen":13908,
[...]
